{
  "</s>": 0,
  "<unk>": 1,
  ",": 2,
  ".": 3,
  "\u2581de": 4,
  ";": 5,
  "\u2581&": 6,
  "\u2581la": 7,
  "a": 8,
  "pos": 9,
  "\u2581\u0432": 10,
  "\u2581\u0438": 11,
  "\u2581et": 12,
  "\u2581des": 13,
  "'": 14,
  "\u2581l": 15,
  "\u2581les": 16,
  "\u2581\u00e0": 17,
  "\u2581le": 18,
  "\u2581d": 19,
  "\u2581du": 20,
  "\u2581": 21,
  "-": 22,
  "\u2581en": 23,
  "\u2581\u043f\u043e": 24,
  "\u2581(": 25,
  "\u2581\u043d\u0430": 26,
  "\u2581\u0441": 27,
  ")": 28,
  "\u2581que": 29,
  "\u2581a": 30,
  "\u2581pour": 31,
  "\u2581dans": 32,
  "\u2581-": 33,
  "s": 34,
  "\u2581au": 35,
  "\u2581sur": 36,
  "\u2581un": 37,
  "\u2581\u043d\u0435": 38,
  "\u0435": 39,
  "\u2581par": 40,
  "\u2581\u0447\u0442\u043e": 41,
  "\u2581une": 42,
  "\u2581qui": 43,
  ":": 44,
  "\u2581\u043e": 45,
  "\u2581\u0434\u043b\u044f": 46,
  "\u2581aux": 47,
  "\u2581est": 48,
  "/": 49,
  "\u2581\u043a": 50,
  "\u0445": 51,
  "\u0430": 52,
  "\u2581\u0412": 53,
  "?": 54,
  "\u0439": 55,
  "\u043c": 56,
  "\u2581pas": 57,
  "\u043e\u0433\u043e": 58,
  "\u2581qu": 59,
  "\u2581Le": 60,
  "\u2581\u0433\u043e\u0434\u0430": 61,
  "\u2581\u0437\u0430": 62,
  "\u0438": 63,
  "\u2581ce": 64,
  "\u2581s": 65,
  "\u2581ou": 66,
  "\u2581ont": 67,
  "\u2581\u043e\u0442": 68,
  "t": 69,
  "qu": 70,
  "ot": 71,
  "\u2581ne": 72,
  "\u2581\u00e9t\u00e9": 73,
  "e": 74,
  "\u2581il": 75,
  "\u2581\"": 76,
  "\u0443": 77,
  "\u2581sont": 78,
  "\u2581\u0442\u0430\u043a\u0436\u0435": 79,
  "\u2581\u0430": 80,
  "\u2581\u0438\u043b\u0438": 81,
  "\u2581plus": 82,
  "\u2581avec": 83,
  "\u2581?": 84,
  "\u2581pays": 85,
  "\u2581n": 86,
  "\u2581\u0438\u0437": 87,
  "\u2581\u041d\u0430\u0446\u0438\u0439": 88,
  "\u2581\u041e\u0431\u044a\u0435\u0434\u0438\u043d\u0435\u043d\u043d\u044b\u0445": 89,
  "\u2581La": 90,
  "est": 91,
  "\u2581\u043a\u0430\u043a": 92,
  "\u2581Les": 93,
  "\u2581\u041e\u0440\u0433\u0430\u043d\u0438\u0437\u0430\u0446\u0438\u0438": 94,
  "\u043e": 95,
  "\u25811": 96,
  "\u2581se": 97,
  "\u2581Il": 98,
  "\u043e\u0439": 99,
  "\u2581\u00eatre": 100,
  "\u2581Nations": 101,
  "\u2581d\u00e9veloppement": 102,
  "\u2581L": 103,
  "\u2581Unies": 104,
  "\u2581Je": 105,
  "),": 106,
  "\u2581A": 107,
  "...": 108,
  "\u2581droits": 109,
  ").": 110,
  "\u2581\u0435\u0433\u043e": 111,
  "\u2581\u0438\u0445": 112,
  "\u2581the": 113,
  "\u2581Comit\u00e9": 114,
  "\u2581C": 115,
  "\u2581c": 116,
  "\u2581\u043f\u0440\u0438": 117,
  "\u2581sa": 118,
  "\u0441\u044f": 119,
  "\u0430\u044f": 120,
  "\u2581\u042f": 121,
  "\u044b": 122,
  "\u2581leur": 123,
  "\u2581\u00c9tats": 124,
  "\u2581\u044d\u0442\u043e": 125,
  "\u2581\u044f": 126,
  "\u2581son": 127,
  "\u2581\u043a\u043e\u0442\u043e\u0440\u044b\u0435": 128,
  "\u2581\u0421": 129,
  "!": 130,
  "\u043c\u0438": 131,
  "\u2581ces": 132,
  "\u043e\u043c": 133,
  "\u2581fait": 134,
  "\u2581\u0447\u0442\u043e\u0431\u044b": 135,
  "l": 136,
  "\u2581b": 137,
  "\u2581Conseil": 138,
  "\u2581\u0442\u043e\u043c": 139,
  "\u2581y": 140,
  "il": 141,
  "\u2581rapport": 142,
  "\u2581\u043e\u0431\u043b\u0430\u0441\u0442\u0438": 143,
  "\u2581of": 144,
  "\u2581cette": 145,
  "\u2581autres": 146,
  "un": 147,
  "\u2581ses": 148,
  "g": 149,
  "\u043d": 150,
  "\u2581s\u00e9curit\u00e9": 151,
  "\u2581M": 152,
  "\u2581entre": 153,
  "\u2581comme": 154,
  "\u25812": 155,
  "\u2581\u0443": 156,
  "\u2581\u0431\u044b": 157,
  "\u2581vous": 158,
  "\u2581\u0442\u043e\u0433\u043e": 159,
  "\u2581non": 160,
  "\u0433\u043e": 161,
  "\u2581En": 162,
  "\u2581faire": 163,
  "\u2581travail": 164,
  "\u2581\u0447\u0435\u043b\u043e\u0432\u0435\u043a\u0430": 165,
  "\u2581je": 166,
  "\u2581\u0434\u043e": 167,
  "\u2581\u043e\u0431": 168,
  "\u2581\u0440\u0430\u0437\u0432\u0438\u0442\u0438\u044f": 169,
  "gt": 170,
  "\u2581Commission": 171,
  "\u2581\u0431\u0443\u0434\u0435\u0442": 172,
  "\u25813": 173,
  "\u2581tous": 174,
  "\u2581g\u00e9n\u00e9ral": 175,
  "\u2581S": 176,
  "\u2581\u043f\u0440\u0430\u0432": 177,
  "\u2581droit": 178,
  "A": 179,
  "\u2581\u0432\u0441\u0435": 180,
  "\u2581ainsi": 181,
  "\u2581contre": 182,
  "\u2581nous": 183,
  "lt": 184,
  "\u2581\u043e\u0442\u043d\u043e\u0448\u0435\u043d\u0438\u0438": 185,
  "\u2581femmes": 186,
  "\u2581\u0413\u0435\u043d\u0435\u0440\u0430\u043b\u044c\u043d": 187,
  "\u2581leurs": 188,
  "\u2581\u0442\u043e": 189,
  "\u2581session": 190,
  "\u2581\u044d\u0442\u043e\u0439": 191,
  "\u2581\u0435\u0435": 192,
  "y": 193,
  "\u2581and": 194,
  "\u2581\u0431\u044b\u043b\u043e": 195,
  "\u2581mesures": 196,
  "\u2581\u00e9galement": 197,
  "\u2581Convention": 198,
  "\u2581activit\u00e9s": 199,
  "\u2581r\u00e9solution": 200,
  "\u2581on": 201,
  "\u2581\u0432\u043e\u043f\u0440\u043e\u0441\u0430\u043c": 202,
  "\u2581\u0431\u043e\u043b\u0435\u0435": 203,
  "\u2581\u0441\u0432\u044f\u0437\u0438": 204,
  "\u2581\u0441\u043e": 205,
  "\u2581\u0434\u0435\u044f\u0442\u0435\u043b\u044c\u043d\u043e\u0441\u0442\u0438": 206,
  "C": 207,
  "\u25814": 208,
  "\u258110": 209,
  "\u2581g\u00e9n\u00e9rale": 210,
  "er": 211,
  "ai": 212,
  "\u2581\u0436\u0435\u043d\u0449\u0438\u043d": 213,
  "\u2581\u0433\u043e\u0434\u0443": 214,
  "\u0443\u044e": 215,
  "\"": 216,
  "\u2581internationale": 217,
  "\u2581\u0442\u044b": 218,
  "\u2581\u0418": 219,
  "\u2581\u043e\u043d": 220,
  "\u2581\u0432\u0441\u0435\u0445": 221,
  "\u2581\u0441\u043e\u043e\u0442\u0432\u0435\u0442\u0441\u0442\u0432\u0438\u0438": 222,
  "\u25815": 223,
  "\u2581\u043f\u043e\u0434": 224,
  "\u044e": 225,
  "es": 226,
  "\u2581!": 227,
  "\u2581si": 228,
  "\u2581\u0431\u044b\u043b\u0438": 229,
  "\u2581tout": 230,
  "\u2581projet": 231,
  "\u043e\u0432": 232,
  "\u2581in": 233,
  "\u2581D": 234,
  "\u2581peut": 235,
  "\u2581J": 236,
  "\u2581\u0432\u044b": 237,
  "\u258115": 238,
  "\u2581mais": 239,
  "\u2581\u0431\u044b\u0442\u044c": 240,
  "\u25817": 241,
  "\u2581international": 242,
  "\u2581\u043c\u0435\u0436\u0434\u0443": 243,
  "\u2581\u0442\u0435\u043c": 244,
  "\u2581services": 245,
  "\u2581\u0432\u043e": 246,
  "\u2581\u043c\u044b": 247,
  "\u2581Secr\u00e9taire": 248,
  "\u2581\u041f\u043e": 249,
  "en": 250,
  "\u2581\u044d\u0442\u043e\u0433\u043e": 251,
  "\u2581notamment": 252,
  "\u2581\u0441\u0442\u0440\u0430\u043d": 253,
  "\u2581\u0440\u0430\u043c\u043a\u0430\u0445": 254,
  "\u2581\u043c\u043e\u0436\u0435\u0442": 255,
  "\u2581Groupe": 256,
  "\u2581\u041d\u0430": 257,
  "\u2581\u0441\u0435\u0441\u0441\u0438\u0438": 258,
  "\u2581dont": 259,
  "\u2581bien": 260,
  "\u2581\u0431\u044b\u043b": 261,
  "\u2581\u042d\u0442\u043e": 262,
  "\u2581\u0440\u0435\u0437\u043e\u043b\u044e\u0446\u0438\u0438": 263,
  "\u25816": 264,
  "\u25818": 265,
  "\u2581\u0432\u0440\u0435\u043c\u044f": 266,
  "\u2581\u0436\u0435": 267,
  "\u2581elle": 268,
  "\u2581mise": 269,
  "\u2581\u0442\u0430\u043a": 270,
  "\u2581concernant": 271,
  "\u2581\u044f\u0432\u043b\u044f\u0435\u0442\u0441\u044f": 272,
  "\u2581personnes": 273,
  "\u2581homme": 274,
  "une": 275,
  "\u2581\u00e9tait": 276,
  "\u2581deux": 277,
  "\u2581\u0446\u0435\u043b\u044f\u0445": 278,
  "\u2581cas": 279,
  "\u2581membres": 280,
  "\u2581\u043e\u043d\u0438": 281,
  "\u2581tu": 282,
  "\u2581questions": 283,
  "\u044f": 284,
  "S": 285,
  "\u2581partie": 286,
  "\u0441": 287,
  "\u2581sous": 288,
  "\u0432": 289,
  "\u2581\u0410": 290,
  "\u043d\u0430": 291,
  "\u2581[": 292,
  "\u2581\u041a\u043e\u043c\u0438\u0442\u0435\u0442": 293,
  "\u2581to": 294,
  "\u2581aussi": 295,
  "\u2581m\u00eame": 296,
  "\u2581paix": 297,
  "\u2581I": 298,
  "\u2581Tu": 299,
  "L": 300,
  "\u2581jour": 301,
  "\u2581\u0433": 302,
  "\u2581\u00c0": 303,
  "\u2581question": 304,
  "\u2581compte": 305,
  "\u2581cadre": 306,
  "\u2581\u0421\u043e\u0432\u0435\u0442\u0430": 307,
  "\u2581ressources": 308,
  "\u2581On": 309,
  "\u2581\u0440\u0430\u0431\u043e\u0442\u044b": 310,
  "\u2581lui": 311,
  "\u0434": 312,
  "\u258130": 313,
  "\u2581toutes": 314,
  "\u2581\u0413": 315,
  "\u2581enfants": 316,
  "\u2581coop\u00e9ration": 317,
  "\u044b\u0439": 318,
  "\u2581\u043d\u043e": 319,
  "\u2581avait": 320,
  "\u2581\u0434\u043e\u043b\u0436\u043d\u044b": 321,
  "\u258118": 322,
  "\u2581\u0433\u043e\u0441\u0443\u0434\u0430\u0440\u0441\u0442\u0432": 323,
  "\u2581m": 324,
  "\u2581\u0431\u0435\u0437\u043e\u043f\u0430\u0441\u043d\u043e\u0441\u0442\u0438": 325,
  "\u044b\u0445": 326,
  "\u258112": 327,
  "\u2581syst\u00e8me": 328,
  "\u2581\u043f\u0440\u0430\u0432\u0430": 329,
  "\u2581\u041a": 330,
  "\u043d\u044b\u0445": 331,
  "\u2581\u044d\u0442\u043e\u043c": 332,
  "\u0442": 333,
  "\u25819": 334,
  "\u2581\u0434\u0440\u0443\u0433\u0438\u0445": 335,
  "\u2581\u043f\u043e\u043c\u043e\u0449\u0438": 336,
  "\u2581Dans": 337,
  "\u2581doit": 338,
  "\u2581paragraphe": 339,
  "\u2581\u00e7a": 340,
  "\u2581mati\u00e8re": 341,
  "\u2581\u0423": 342,
  "\u2581\u0432\u043a\u043b\u044e\u0447\u0430\u044f": 343,
  "d": 344,
  "\u2581B": 345,
  "\u258120": 346,
  "\u2581\u0434\u043d\u044f": 347,
  "\u043d\u043e": 348,
  "r": 349,
  "\u2581sans": 350,
  "\u2581\u043e\u0431\u0435\u0441\u043f\u0435\u0447\u0435\u043d\u0438\u044f": 351,
  "\u258111": 352,
  "\u2581politiques": 353,
  "\u258113": 354,
  "\u2581\u0435\u0441\u043b\u0438": 355,
  "\u2581soit": 356,
  "\u2581cours": 357,
  "\u2581\u00c9tat": 358,
  "\u2581nombre": 359,
  "\u2581programme": 360,
  "\u2581programmes": 361,
  "\u2581\u0441\u0438\u0441\u0442\u0435\u043c\u044b": 362,
  "\u2581\u044d\u0442\u0438\u0445": 363,
  "\u2581\u041a\u043e\u043d\u0432\u0435\u043d\u0446\u0438\u0438": 364,
  "\u2581\u0421\u0428\u0410": 365,
  "]": 366,
  "\u2581\u041c\u044b": 367,
  "\u2581E": 368,
  "\u2581afin": 369,
  "\u2581Conf\u00e9rence": 370,
  "\u2581\u0413\u0435\u043d\u0435\u0440\u0430\u043b\u044c\u043d\u043e\u0439": 371,
  ".\"": 372,
  "\u258114": 373,
  "\u2581Gouvernement": 374,
  "\u2581\u00e9conomique": 375,
  "\u2581dollars": 376,
  "on": 377,
  "\u2581\u041d\u0435": 378,
  "\u2581\u0441\u0435\u043a\u0440\u0435\u0442\u0430\u0440\u044f": 379,
  "\u2581\u043e\u0441\u0443\u0449\u0435\u0441\u0442\u0432\u043b\u0435\u043d\u0438\u044f": 380,
  "\u2581organisations": 381,
  "\u2581\u043a\u043e\u0442\u043e\u0440\u044b\u0439": 382,
  "\u2581Pr\u00e9sident": 383,
  "\u2581\u0433\u043e\u0441\u0443\u0434\u0430\u0440\u0441\u0442\u0432\u0430": 384,
  "\u2581\u043c\u0435\u0440\u044b": 385,
  "\u2581\u0427\u0442\u043e": 386,
  "\u2581\u0414\u0430": 387,
  "\u2581\u043a\u0430\u0447\u0435\u0441\u0442\u0432\u0435": 388,
  "\u2581protection": 389,
  "ment": 390,
  "\u2581situation": 391,
  "\u2581j": 392,
  "\u2581\u043a\u043e\u0433\u0434\u0430": 393,
  "\u2581\u0447\u0430\u0441\u0442\u043d\u043e\u0441\u0442\u0438": 394,
  "\u2581\u0434\u043e\u043b\u043b": 395,
  "\u2581\u0422\u044b": 396,
  "\u2581\u041e\u043d": 397,
  "\u043a\u0430": 398,
  "\u2581\u0438\u043d\u0444\u043e\u0440\u043c\u0430\u0446\u0438\u0438": 399,
  "\u2581f": 400,
  ");": 401,
  "\u2581\u043f\u0435\u0440\u0438\u043e\u0434": 402,
  "\u043e\u0435": 403,
  "\u2581ils": 404,
  "\u2581particulier": 405,
  "ed": 406,
  "\u2581\u043a\u043e\u0442\u043e\u0440\u044b\u0445": 407,
  "\u2581me": 408,
  "\u2581\u0441\u0442\u0440\u0430\u043d\u044b": 409,
  "\u2581parties": 410,
  "\u2581\u043c\u0435\u043d\u044f": 411,
  "\u2581\u0431\u044b\u043b\u0430": 412,
  "\u2581\u043c\u043e\u0433\u0443\u0442": 413,
  "\u2581\u041e": 414,
  "\u2581gestion": 415,
  "\u2581o\u00f9": 416,
  "\u2581point": 417,
  "\u2581vue": 418,
  "\u2581Assembl\u00e9e": 419,
  "\u2581R\u00e9publique": 420,
  "\u2581\u043e\u043d\u0430": 421,
  "\u2581\u0442\u043e\u043b\u044c\u043a\u043e": 422,
  "\u2581\u043e\u0441\u043d\u043e\u0432\u0435": 423,
  "\u2581\u043b\u0438\u0446": 424,
  "\u2581niveau": 425,
  "\u258116": 426,
  "\u2581\u043c": 427,
  "\u2581article": 428,
  "\u2581\u0153uvre": 429,
  "\u2581application": 430,
  "\u258117": 431,
  "o": 432,
  "\u043d\u044b\u0435": 433,
  "\u2581\u043e\u0431\u0440\u0430\u0437\u043e\u043c": 434,
  "\u044b\u0435": 435,
  "\u2581\u043c\u0438\u0440\u0430": 436,
  "\u2581loi": 437,
  "\u2581No": 438,
  "\u2581\u0441\u0432\u043e\u0435\u0439": 439,
  "\u2581\u0434\u0435\u0442\u0435\u0439": 440,
  "\u2581titre": 441,
  "ant": 442,
  "\u2581donn\u00e9es": 443,
  "\u2581\u043f\u043e\u0441\u043b\u0435": 444,
  "\u2581Nous": 445,
  "\u2581\u0434\u043e\u043a\u043b\u0430\u0434": 446,
  "\u2581\u0443\u0440\u043e\u0432\u043d\u0435": 447,
  "\u2581Elle": 448,
  "\u043b\u0438": 449,
  "ing": 450,
  "\u2581\u0441\u043b\u0435\u0434\u0443\u0435\u0442": 451,
  "\u2581\u0431\u0443\u0434\u0443\u0442": 452,
  "\u0442\u044c": 453,
  "\u2581cet": 454,
  "\u2581Et": 455,
  "\u2581t": 456,
  "\u2581Organisation": 457,
  "\u2581\u0441\u0440\u0435\u0434\u0441\u0442\u0432": 458,
  "\u2581travaux": 459,
  "\u2581\u043f\u0440\u043e\u0433\u0440\u0430\u043c\u043c\u044b": 460,
  "\u2581P": 461,
  "\u258119": 462,
  "\u2581De": 463,
  "\u2581\u0433\u043e\u0434": 464,
  "\u2581dispositions": 465,
  "\u2581\u0411\u0435\u0437\u043e\u043f\u0430\u0441\u043d\u043e\u0441\u0442\u0438": 466,
  "\u2581politique": 467,
  "le": 468,
  "\u043d\u043e\u0433\u043e": 469,
  "\u2581compris": 470,
  "\u2581informations": 471,
  "E": 472,
  "\u2581\u043c\u043d\u0435": 473,
  "\u043b": 474,
  "ci": 475,
  "\u258131": 476,
  "\u044c": 477,
  "\u2581personnel": 478,
  "\u2581\u0434\u0435\u0439\u0441\u0442\u0432\u0438\u0439": 479,
  "\u2581plan": 480,
  "\u2581\u043c\u0435\u0440": 481,
  "\u2581\u0435\u0449\u0435": 482,
  "\u2581Un": 483,
  "\u2581mettre": 484,
  "al": 485,
  "\u2581h": 486,
  "\u2581national": 487,
  "\u2581\u0445\u043e\u0434\u0435": 488,
  "\u043d\u043e\u0439": 489,
  "\u2581base": 490,
  "\u2581\u0433\u0440\u0443\u043f\u043f\u044b": 491,
  "\u2581\u0440\u0430\u0437": 492,
  "\u043e\u043c\u0443": 493,
  "\u258122": 494,
  "\u2581prendre": 495,
  "\u0435\u0448\u044c": 496,
  "\u2581demande": 497,
  "\u2581doivent": 498,
  "\u2581efforts": 499,
  "\u2581suis": 500,
  "\u2581place": 501,
  "\u2581II": 502,
  "\u2581\u0440\u0435\u0441\u0443\u0440\u0441\u043e\u0432": 503,
  "\u2581dit": 504,
  "\u2581d\u00e9cision": 505,
  "\u2581Vous": 506,
  "\u2581\u043f\u0440\u043e": 507,
  "\u2581sant\u00e9": 508,
  "\u2581\u0440\u0435\u0448\u0435\u043d\u0438\u044f": 509,
  "\u2581\u043a\u043e\u0442\u043e\u0440\u0430\u044f": 510,
  "\u2581Pour": 511,
  "\u0435\u0442": 512,
  "\u2581sp\u00e9cial": 513,
  "\u2581d\u00e9cembre": 514,
  "c": 515,
  "\u2581processus": 516,
  "\u2581encore": 517,
  "ez": 518,
  "\u2581\u043e\u0440\u0433\u0430\u043d\u0438\u0437\u0430\u0446\u0438\u0438": 519,
  "\u2581devrait": 520,
  "\u25812005": 521,
  ".1": 522,
  "\u2581moins": 523,
  "\u2581va": 524,
  "\u2581conform\u00e9ment": 525,
  "\u2581p": 526,
  "\u2581avoir": 527,
  "\u258121": 528,
  "\u2581\u0442\u0430\u043a\u0438\u0445": 529,
  "\u0442\u043e": 530,
  "\u2581toute": 531,
  "\u2581\u0431\u0435\u0437": 532,
  "\u2581formation": 533,
  "\u2581mon": 534,
  "\u2581apr\u00e8s": 535,
  "\u2581\u0410\u0441\u0441\u0430\u043c\u0431\u043b\u0435\u0438": 536,
  "\u043a\u0438": 537,
  "\u2581autre": 538,
  "\u2581\u043b\u0438": 539,
  "\u2581ans": 540,
  "\u2581\u043c\u0435\u0436\u0434\u0443\u043d\u0430\u0440\u043e\u0434\u043d\u043e\u0433\u043e": 541,
  "ait": 542,
  "\u2581\u041a\u0430\u043a": 543,
  "\u258125": 544,
  "\u258123": 545,
  "\u2581F": 546,
  "\u043b\u0430": 547,
  "\u2581internationales": 548,
  "\u2581\u0441\u043b\u0443\u0447\u0430\u0435": 549,
  "\u2581\u041a\u0440\u043e\u043c\u0435": 550,
  "\u2581\u0447\u0435\u043c": 551,
  "\u2581Bureau": 552,
  "\u25812.": 553,
  "\u2581Ce": 554,
  "\u25812000": 555,
  "\u2581\u043f\u0440\u043e\u0442\u0438\u0432": 556,
  "\u2581\u043f\u0440\u0430\u0432\u0430\u043c": 557,
  "homme": 558,
  "\u2581\u0441\u0442\u0430\u0442\u044c\u0438": 559,
  "\u2581armes": 560,
  "\u2581\u0441\u0432\u043e\u0438\u0445": 561,
  "\u00e9": 562,
  "\u2581\u041a\u043e\u043c\u0438\u0442\u0435\u0442\u0430": 563,
  "\u2581examen": 564,
  "\u2581action": 565,
  "\u2581\u0441\u043e\u0442\u0440\u0443\u0434\u043d\u0438\u0447\u0435\u0441\u0442\u0432\u0430": 566,
  "\u2581sera": 567,
  "\u044b\u043c": 568,
  "\u2581\u043b\u0435\u0442": 569,
  "\u2581\u0447\u0438\u0441\u043b\u0435": 570,
  "\u2581rapports": 571,
  "\u2581\u043f\u043e\u043b\u043e\u0436\u0435\u043d\u0438\u044f": 572,
  "\u2581\u0432\u043d\u0438\u043c\u0430\u043d\u0438\u0435": 573,
  "\u25812006": 574,
  "\u2581000": 575,
  "\u25812002": 576,
  "\u2581temps": 577,
  "\u2581\u0443\u0441\u0438\u043b\u0438\u044f": 578,
  "\u2581\u0438\u043c": 579,
  "\u2581avant": 580,
  "\u0410": 581,
  "\u2581vie": 582,
  "\u2581domaine": 583,
  "\u25812004": 584,
  "\u2581ordre": 585,
  "\u2581\u0443\u0436\u0435": 586,
  "\u2581relatives": 587,
  "\u2581\u0447": 588,
  "\u2581\u0441\u0442\u043e\u0440\u043e\u043d\u044b": 589,
  "\u2581\u041a\u043e\u043c\u0438\u0441\u0441\u0438\u0438": 590,
  "\u2581e": 591,
  "\u2581\u044d\u0442\u0438": 592,
  "\u2581document": 593,
  "\u2581part": 594,
  "\u043d\u044b\u0439": 595,
  "\u2581monde": 596,
  "\u2581Parties": 597,
  "\u2581\u0446\u0435\u043b\u044c\u044e": 598,
  "\u2581\u0434\u0430\u043d\u043d\u044b\u0445": 599,
  "\u2581Au": 600,
  "\u2581Programme": 601,
  "\u2581\u0441\u0432\u043e\u0438": 602,
  "\u2581\u043d\u0430\u0441\u0435\u043b\u0435\u043d\u0438\u044f": 603,
  "\u25812003": 604,
  "\u2581\u0434\u0435\u043a\u0430\u0431\u0440\u044f": 605,
  "\u0438\u0435": 606,
  "\u2581peuvent": 607,
  "\u2581Si": 608,
  "\u2581recommandations": 609,
  "Add": 610,
  "\u2581visant": 611,
  "\u25812008": 612,
  "z": 613,
  "\u043c\u0443": 614,
  "\u258124": 615,
  "\u2581\u043c\u043e\u0436\u043d\u043e": 616,
  "\u2581objectifs": 617,
  "\u2581\u043f\u0440\u043e\u0433\u0440\u0430\u043c\u043c": 618,
  "\u0435\u0439": 619,
  "\u2581\u043f\u043e\u0432\u0435\u0441\u0442\u043a\u0438": 620,
  "\u2581for": 621,
  "\u2581\u0441\u0432\u043e\u044e": 622,
  "\u258127": 623,
  "\u258128": 624,
  "\u2581\u0442\u0435\u0431\u044f": 625,
  "\u258126": 626,
  "\u2581affaires": 627,
  "\u2581appui": 628,
  "\u2581\u00e9gard": 629,
  "\u25812007": 630,
  "\u25812001": 631,
  "\u2581Des": 632,
  "\u2581r\u00e9union": 633,
  "\u2581projets": 634,
  "\u2581ci": 635,
  "ce": 636,
  "\u0437\u0430": 637,
  "\u2581\u00e9taient": 638,
  "\u00eatre": 639,
  "\u2581r\u00f4le": 640,
  "\u2581note": 641,
  "\u2581T": 642,
  "\u2581renforcer": 643,
  "\u2581contr\u00f4le": 644,
  "\u2581\u0412\u044b": 645,
  "\u2581institutions": 646,
  "\u25812009": 647,
  "\u2581p\u00e9riode": 648,
  "\u2581tr\u00e8s": 649,
  "\u2581outre": 650,
  "\u2581lieu": 651,
  "\u2581\u041f\u0440\u0438": 652,
  "\u2581\u0441\u0442\u0440\u0430\u043d\u0430\u0445": 653,
  "\u2581\u0421\u043e\u0432\u0435\u0442": 654,
  "\u2581concerne": 655,
  "\u2581\u0443\u043f\u0440\u0430\u0432\u043b\u0435\u043d\u0438\u044f": 656,
  "\u2581\u044d\u0442\u043e\u0442": 657,
  "\u2581Une": 658,
  "\u043a": 659,
  "\u2581\u043c\u0435\u0436\u0434\u0443\u043d\u0430\u0440\u043e\u0434\u043d\u044b\u0445": 660,
  "\u2581\u0437\u0430\u0449\u0438\u0442\u044b": 661,
  "\u2581nationale": 662,
  "\u2581te": 663,
  "\u0438\u043c": 664,
  "\u2581\u043f\u043e\u043b\u0438\u0442\u0438\u043a\u0438": 665,
  "\u2581fois": 666,
  "\u2581fin": 667,
  "\u2581tant": 668,
  "\u2581\u041d\u043e": 669,
  "\u2581\u043f\u0440\u0430\u0432\u043e": 670,
  "\u2581\u0432\u043e\u043f\u0440\u043e\u0441\u0443": 671,
  "\u2581\u0443\u0447\u0435\u0442\u043e\u043c": 672,
  "\u2581\u0432\u043e\u043f\u0440\u043e\u0441": 673,
  "\u2581information": 674,
  "\u2581V": 675,
  "\u2581organismes": 676,
  "\u2581mondiale": 677,
  "b": 678,
  "\u043d\u0430\u044f": 679,
  "re": 680,
  "\u2581\u0438\u043d\u0444\u043e\u0440\u043c\u0430\u0446\u0438\u044e": 681,
  "\u2581\u0441\u043e\u043e\u0442\u0432\u0435\u0442\u0441\u0442\u0432\u0443\u044e\u0449\u0438\u0445": 682,
  "\u2581\u043d\u0435\u043e\u0431\u0445\u043e\u0434\u0438\u043c\u043e": 683,
  "\u0421": 684,
  "\u2581conditions": 685,
  "2": 686,
  "\u2581R": 687,
  "\u258129": 688,
  "\u2581soient": 689,
  ",\"": 690,
  "\u25813.": 691,
  "\u2581r\u00e9sultats": 692,
  "\u2581elles": 693,
  "\u2581\u043e\u0431\u0435\u0441\u043f\u0435\u0447\u0438\u0442\u044c": 694,
  "\u2581g": 695,
  "\u2581juin": 696,
  "\u0435\u043c": 697,
  "\u2581\u043a\u043e\u0442\u043e\u0440\u043e\u0439": 698,
  "\u2581r\u00e9gion": 699,
  "\u2581social": 700,
  "\u2581discrimination": 701,
  "\u2581depuis": 702,
  "\u2581groupes": 703,
  "\u2581\u043e\u0441\u043e\u0431\u0435\u043d\u043d\u043e": 704,
  "\u2581ma": 705,
  "\u2581\u0434\u043e\u043b\u0436\u0435\u043d": 706,
  "\u2581s\u00e9ance": 707,
  "autres": 708,
  "\u2581assurer": 709,
  "\u2581Mais": 710,
  "\u2581pris": 711,
  "Assembl\u00e9e": 712,
  "\u2581population": 713,
  "\u2581trois": 714,
  "\u2581donc": 715,
  "\u2581\u044f\u0432\u043b\u044f\u044e\u0442\u0441\u044f": 716,
  "\u2581pr\u00e9sent": 717,
  "elle": 718,
  "\u2581\u043d\u0438\u0445": 719,
  "\u2581mani\u00e8re": 720,
  "\u2581op\u00e9rations": 721,
  "):": 722,
  "\u2581secteur": 723,
  "1": 724,
  "\u2581durable": 725,
  "\u2581\u0440\u0430\u0431\u043e\u0442\u0435": 726,
  "ation": 727,
  "\u2581technique": 728,
  "\u043a\u0443": 729,
  "\u0430\u043c\u0438": 730,
  "\u2581lutte": 731,
  "\u2581\u043e\u0440\u0433\u0430\u043d\u0438\u0437\u0430\u0446\u0438\u0439": 732,
  "\u2581\u0432\u043e\u043f\u0440\u043e\u0441\u044b": 733,
  "\u2581\u043f\u0443\u043d\u043a\u0442": 734,
  "\u2581\u043f\u0440\u043e\u0432\u0435\u0434\u0435\u043d\u0438\u044f": 735,
  "\u2581mesure": 736,
  "\u2581probl\u00e8mes": 737,
  "\u2581\u043d\u0435\u0442": 738,
  "\u2581moyens": 739,
  "\u2581G": 740,
  "\u2581\u041c": 741,
  "\u0438\u0439": 742,
  "\u2581\u0446\u0435\u043b\u0435\u0439": 743,
  "\u2581\u043e\u0440\u0433\u0430\u043d\u043e\u0432": 744,
  "\u2581\u0447\u043b\u0435\u043d\u043e\u0432": 745,
  "\u2581avaient": 746,
  "\u2581\u0420\u0435\u0441\u043f\u0443\u0431\u043b\u0438\u043a\u0438": 747,
  "\u2581\u0415\u0441\u043b\u0438": 748,
  "\u2581notre": 749,
  "\u2581mis": 750,
  "\u2581ceux": 751,
  "\u2581justice": 752,
  "\u2581Membres": 753,
  "\u2581\u041e\u043d\u0430": 754,
  "\u2581Par": 755,
  "\u2581\u0440\u0435\u0448\u0435\u043d\u0438\u0435": 756,
  "\u2581\u0442\u0435\u0445": 757,
  "\u2581selon": 758,
  "\u2581moi": 759,
  "\u2581\u044d\u0442\u0438\u043c": 760,
  "\u2581\u0433\u0440\u0443\u043f\u043f\u0430": 761,
  "\u2581soci\u00e9t\u00e9": 762,
  "\u2581\u043f\u043e\u043c\u043e\u0449\u044c": 763,
  "\u2581\u0434\u0435\u044f\u0442\u0435\u043b\u044c\u043d\u043e\u0441\u0442\u044c": 764,
  "\u2581violence": 765,
  "\u2581certains": 766,
  "\u2581\u0434\u0440\u0443\u0433\u0438\u0435": 767,
  "\u2581\u0417\u0430": 768,
  "\u2581\u041d\u0435\u0442": 769,
  "\u0436\u0430": 770,
  "\u2581\u043a\u043e\u043c\u0438\u0442\u0435\u0442\u0430": 771,
  "\u2581mondial": 772,
  "\u2581groupe": 773,
  "\u2581\u0434\u043e\u043b\u0436\u043d\u0430": 774,
  "\u2581communaut\u00e9": 775,
  "\u2581secr\u00e9tariat": 776,
  "\u2581participation": 777,
  "article": 778,
  "\u2581\u043f\u0440\u043e\u0435\u043a\u0442\u0430": 779,
  "\u2581\u043e\u0440\u0443\u0436\u0438\u044f": 780,
  "\u2581pendant": 781,
  "\u2581\u043f\u0440\u043e\u0435\u043a\u0442": 782,
  "\u2581tenu": 783,
  "\u043f\u043e": 784,
  "\u2581aide": 785,
  "\u2581\u0438\u0441\u043f\u043e\u043b\u044c\u0437\u043e\u0432\u0430\u043d\u0438\u044f": 786,
  "\u2581inter": 787,
  "\u2581\u0442\u0435\u0447\u0435\u043d\u0438\u0435": 788,
  "\u2581laquelle": 789,
  "\u2581lors": 790,
  "\u2581eu": 791,
  "\u2581savoir": 792,
  "Unis": 793,
  "\u2581\u0440\u0435\u0437\u0443\u043b\u044c\u0442\u0430\u0442\u0435": 794,
  "\u2581\u043f\u043e\u0434\u0434\u0435\u0440\u0436\u043a\u0438": 795,
  "\u2581chaque": 796,
  "\u2581\u0434\u043e\u043a\u043b\u0430\u0434\u0430": 797,
  "\u2581\u043a\u043e\u0442\u043e\u0440\u043e\u0435": 798,
  "ont": 799,
  "\u2581\u0437\u0430\u043a\u043e\u043d\u043e\u0434\u0430\u0442\u0435\u043b\u044c\u0441\u0442\u0432": 800,
  "\u2581re": 801,
  "\u2581progr\u00e8s": 802,
  "as": 803,
  "\u2581mandat": 804,
  "\u2581\u0441\u043e\u0442\u0440\u0443\u0434\u043d\u0438\u043a\u043e\u0432": 805,
  "\u2581montant": 806,
  "\u2581nouveau": 807,
  "\u2581Ils": 808,
  "\u2581repr\u00e9sentants": 809,
  "\u2581coordination": 810,
  "\u2581\u0432\u043e\u043f\u0440\u043e\u0441\u043e\u0432": 811,
  "\u2581budget": 812,
  "\u2581\u043d\u0438": 813,
  "\u25811999": 814,
  "ou": 815,
  "B": 816,
  "\u2581capacit\u00e9s": 817,
  "\u2581environnement": 818,
  "\u2581juillet": 819,
  "\u2581fonds": 820,
  "\u2581n\u00e9cessaires": 821,
  "\u2581\u043a\u0430\u0441\u0430\u0435\u0442\u0441\u044f": 822,
  "\u2581\u043f\u0440\u0438\u043d\u044f\u0442\u044c": 823,
  "\u2581devraient": 824,
  "\u2581\u043f\u043e\u0434\u0434\u0435\u0440\u0436\u043a\u0443": 825,
  "\u2581prises": 826,
  "\u2581plusieurs": 827,
  "\u2581internationaux": 828,
  "\u2581serait": 829,
  "\u25812011": 830,
  "\u2581commerce": 831,
  "\u2581\u043f\u043e\u0442\u0435\u043d\u0446\u0438\u0430\u043b\u0430": 832,
  "\u2581suite": 833,
  "\u25814.": 834,
  "\u2581Ces": 835,
  "\u2581\u043f\u043e\u0434\u0433\u043e\u0442\u043e\u0432\u043a\u0438": 836,
  "Organisation": 837,
  "\u2581ayant": 838,
  "f": 839,
  "\u2581\u043d\u0430\u0441": 840,
  "\u2581\u0440\u0430\u0441\u0445\u043e\u0434\u043e\u0432": 841,
  "i": 842,
  "\u2581\u043f\u0440\u0430\u0432\u0438\u0442\u0435\u043b\u044c\u0441\u0442\u0432\u0430": 843,
  "\u2581\u043d\u0430\u0446\u0438\u043e\u043d\u0430\u043b\u044c\u043d\u044b\u0445": 844,
  "\u2581nationales": 845,
  "\u2581\u0435\u0441\u0442\u044c": 846,
  "\u2581besoins": 847,
  "\u2581faut": 848,
  "\u2581premi\u00e8re": 849,
  "\u043d\u044b\u043c": 850,
  "\u2581l\u00e0": 851,
  "\u2581\u0433\u0434\u0435": 852,
  "\u043e\u0441\u0442\u0438": 853,
  "\u2581fa\u00e7on": 854,
  "\u25812010": 855,
  "\u2581\u0440\u0430\u0431\u043e\u0442\u0443": 856,
  "\u2581ensemble": 857,
  "\u2581organes": 858,
  "\u2581sais": 859,
  "in": 860,
  "ils": 861,
  "\u2581maintien": 862,
  "\u25812012": 863,
  "\u2581\u043e\u0431\u0440\u0430\u0437\u043e\u0432\u0430\u043d\u0438\u044f": 864,
  "\u2581d\u00e9penses": 865,
  "\u2581i": 866,
  "\u2581\u0443\u0447\u0430\u0441\u0442\u0438\u0435": 867,
  "\u2581police": 868,
  "\u2581financement": 869,
  "\u2581\u041f\u0440\u0435\u0434\u0441\u0435\u0434\u0430\u0442\u0435\u043b\u044f": 870,
  "\u2581\u043d\u0430\u0441\u0442\u043e\u044f\u0449\u0435\u0435": 871,
  "\u2581Afrique": 872,
  "\u041c": 873,
  "\u2581possible": 874,
  "\u2581Non": 875,
  "\u2581\u0440\u0430\u0437\u0432\u0438\u0442\u0438\u044e": 876,
  "\u2581millions": 877,
  "\u2581domaines": 878,
  "ent": 879,
  "\u2581\u043f\u0440\u043e\u0431\u043b\u0435\u043c\u044b": 880,
  "\u2581Cette": 881,
  "\u2581N": 882,
  "\u2581\u0431\u043e\u0440\u044c\u0431\u0435": 883,
  "\u2581public": 884,
  "\u2581exemple": 885,
  "\u2581\u0442\u0435\u0431\u0435": 886,
  "\u2581DE": 887,
  "\u2581\u0432\u0441\u0435\u0433\u043e": 888,
  "\u2581d\u00e9l\u00e9gation": 889,
  "\u2581\u00e9conomiques": 890,
  "\u2581\u0440\u043e\u043b\u044c": 891,
  "\u2581\u0436\u0438\u0437\u043d\u0438": 892,
  "\u2581ici": 893,
  "\u25811998": 894,
  "\u2581\u0441\u0435\u0431\u044f": 895,
  "\u2581novembre": 896,
  "\u2581assistance": 897,
  "\u2581\u0438\u044e\u043d\u044f": 898,
  "\u0451": 899,
  "\u00e0": 900,
  "\u2581autorit\u00e9s": 901,
  "\u2581\u041a\u043e\u043d\u0444\u0435\u0440\u0435\u043d\u0446\u0438\u0438": 902,
  "\u2581sujet": 903,
  "\u0438\u0442\u044c": 904,
  "\u2581promouvoir": 905,
  "\u2581pourrait": 906,
  "\u2581septembre": 907,
  "\u2581\u043f\u0440\u0438\u043d\u044f\u0442\u0438\u044f": 908,
  "\u2581\u043f\u043e\u0441\u043a\u043e\u043b\u044c\u043a\u0443": 909,
  "\u2581ann\u00e9es": 910,
  "\u2581\u043f\u0440\u043e\u0446\u0435\u0441\u0441\u0430": 911,
  "\u2581produits": 912,
  "\u2581\u0441\u0440\u0435\u0434\u0441\u0442\u0432\u0430": 913,
  "\u2581\u0440\u0435\u0448\u0435\u043d\u0438\u0439": 914,
  "\u2581nom": 915,
  "\u2581renforcement": 916,
  "\u2581\u043f\u0443\u043d\u043a\u0442\u0435": 917,
  "\u0438\u043b\u0438": 918,
  "\u2581\u043d\u0430\u0434": 919,
  "\u043e\u0442": 920,
  "\u043d\u0443\u044e": 921,
  "\u2581octobre": 922,
  "\u0437": 923,
  "\u258150": 924,
  "\u2581\u043e\u0446\u0435\u043d\u043a\u0438": 925,
  "\u2581\u0434\u043e\u043a\u043b\u0430\u0434\u0435": 926,
  "\u2581\u0433\u043e\u0434\u044b": 927,
  "ais": 928,
  "\u2581\u0414": 929,
  "\u2581\u0437\u043d\u0430\u0447\u0435\u043d\u0438\u0435": 930,
  "\u2581acc\u00e8s": 931,
  "\u2581besoin": 932,
  "\u2581\u0443\u0440\u043e\u0432\u043d\u044f": 933,
  "\u2581\u0432\u043e\u0437\u043c\u043e\u0436\u043d\u043e\u0441\u0442\u044c": 934,
  "\u2581d\u00e9j\u00e0": 935,
  "nt": 936,
  "\u2581\u0438\u043c\u0435\u0435\u0442": 937,
  "\u0412": 938,
  "ly": 939,
  "\u2581\u043f\u0443\u0442\u0435\u043c": 940,
  "\u043b\u0438\u0431\u043e": 941,
  "\u2581\u0432\u0441\u0435\u043c": 942,
  "\u2581\u0434\u043e\u043b\u0436\u043d\u043e": 943,
  "\u2581adopt\u00e9": 944,
  "\u2581\u2212": 945,
  "\u2581personne": 946,
  "\u2581The": 947,
  "\u2581III": 948,
  "\u2581\u0432\u043e\u0437\u043c\u043e\u0436\u043d\u043e\u0441\u0442\u0438": 949,
  "\u2581ONU": 950,
  "\u2581\u0414\u043b\u044f": 951,
  "\u2581H": 952,
  "\u2581\u0443\u0441\u043b\u0443\u0433": 953,
  "\u2581\u041e\u043d\u0438": 954,
  "\u2581nouvelles": 955,
  "\u2581\u0434\u0435\u043b\u0435": 956,
  "\u2581cr\u00e9ation": 957,
  "\u0440": 958,
  "\u2581toujours": 959,
  "WP": 960,
  "\u2581\u0447\u0435\u0440\u0435\u0437": 961,
  "\u2581\u043a\u0442\u043e": 962,
  "\u2581annexe": 963,
  "\u2581\u043e\u0442\u043d\u043e\u0441\u0438\u0442\u0435\u043b\u044c\u043d\u043e": 964,
  "\u2581Fonds": 965,
  "\u2581promotion": 966,
  "\u2581nucl\u00e9aires": 967,
  "\u2581pr\u00e9vention": 968,
  "\u2581normes": 969,
  "\u2581\u0442\u043e\u0440\u0433\u043e\u0432\u043b\u0438": 970,
  "\u2581\u0442\u0430\u043a\u0438\u0435": 971,
  "\u2581d\u00e9cisions": 972,
  "\u2581\u043f\u0435\u0440\u0435": 973,
  "\u2581\u043f\u0440\u0438\u0437\u044b\u0432\u0430\u0435\u0442": 974,
  "\u2581r\u00e9unions": 975,
  "\u2581votre": 976,
  "\u2581\u0434\u0438\u0441\u043a\u0440\u0438\u043c\u0438\u043d\u0430\u0446\u0438\u0438": 977,
  "\u2581pr\u00e9sente": 978,
  "\u043d\u043e\u0435": 979,
  "an": 980,
  "\u2581europ\u00e9enne": 981,
  "\u0430\u0445": 982,
  "\u0438\u044f": 983,
  "\u2581dire": 984,
  "\u2581proc\u00e9dure": 985,
  "\u25811995": 986,
  "\u25815.": 987,
  "\u2581\u0433\u043e\u0434\u043e\u0432": 988,
  "n": 989,
  "\u2581suivi": 990,
  "aient": 991,
  "\u2581am\u00e9liorer": 992,
  "\u2581\u00e9tat": 993,
  "\u00c9tat": 994,
  "\u2581\u043f\u0440\u0430\u0432\u0438\u0442\u0435\u043b\u044c\u0441\u0442\u0432\u043e": 995,
  "\u2581\u0440\u0430\u0437\u043b\u0438\u0447\u043d\u044b\u0445": 996,
  "\u2581\u043a\u043e\u043c\u0438\u0442\u0435\u0442": 997,
  "\u2581date": 998,
  "\u2581mars": 999,
  "\u2581\u0441\u0432\u044f\u0437\u0430\u043d\u043d\u044b\u0445": 1000,
  "\u2581\u043b\u0438\u0448\u044c": 1001,
  "\u25811994": 1002,
  "\u2581\u0440\u0435\u043a\u043e\u043c\u0435\u043d\u0434\u0430\u0446\u0438\u0438": 1003,
  "\u2581\u043f\u0440\u043e\u0431\u043b\u0435\u043c": 1004,
  "\u2581documents": 1005,
  "\u2581\u0441\u043e\u0431\u043e\u0439": 1006,
  "\u2581\u00e9valuation": 1007,
  "\u2581\u0434\u0435\u043b": 1008,
  "\u2581repr\u00e9sentant": 1009,
  "\u2581pauvret\u00e9": 1010,
  "\u2581\u0432\u043d\u043e\u0432\u044c": 1011,
  "\u2581experts": 1012,
  "\u2581pratiques": 1013,
  "\u0432\u0435\u0440": 1014,
  "\u2581mai": 1015,
  "\u2581no": 1016,
  "\u2581moyen": 1017,
  "\u2581O": 1018,
  "\u2581premier": 1019,
  "\u2581effet": 1020,
  "\u2581\u0438\u044e\u043b\u044f": 1021,
  "et": 1022,
  "\u2581\u043f\u0443\u043d\u043a\u0442\u0430": 1023,
  "\u2581veux": 1024,
  "\u2581\u043f\u0440\u0438\u043c\u0435\u043d\u0435\u043d\u0438\u044f": 1025,
  "\u2581Protocole": 1026,
  "de": 1027,
  "\u2581\u0440\u044f\u0434": 1028,
  "\u0441\u043c": 1029,
  "\u2581techniques": 1030,
  "\u2581victimes": 1031,
  "\u2581\u041e\u0434\u043d\u0430\u043a\u043e": 1032,
  "\u2581gouvernements": 1033,
  "\u2581\u043b\u044e\u0434\u0435\u0439": 1034,
  "\u2581principes": 1035,
  "\u2581\u044d\u043a\u0441\u043f\u0435\u0440\u0442\u043e\u0432": 1036,
  "\u2581respect": 1037,
  "h": 1038,
  "\u2581\u0434\u043e\u0441\u0442\u0438\u0436\u0435\u043d\u0438\u044f": 1039,
  "\u2581\u043e\u0434\u0438\u043d": 1040,
  "\u2581\u0417": 1041,
  "\u2581mieux": 1042,
  "\u0430\u043c": 1043,
  "\u2581\u0441\u043b\u0443\u0447\u0430\u044f\u0445": 1044,
  "\u2581\u0440\u0430\u0437\u0432\u0438\u0432\u0430\u044e\u0449\u0438\u0445\u0441\u044f": 1045,
  "\u2581seront": 1046,
  "\u25811997": 1047,
  "it": 1048,
  "\u2581sp\u00e9ciale": 1049,
  "\u2581\u043d\u0435\u043e\u0431\u0445\u043e\u0434\u0438\u043c\u043e\u0441\u0442\u044c": 1050,
  "ur": 1051,
  "\u2581mois": 1052,
  "CN": 1053,
  "\u2581famille": 1054,
  "\u2581\u043e\u0441\u043d\u043e\u0432\u043d\u044b\u0445": 1055,
  "\u2581\u0441\u0432\u043e\u0435\u043c": 1056,
  "\u2581femme": 1057,
  "\u2581\u043e\u0441\u0443\u0449\u0435\u0441\u0442\u0432\u043b\u0435\u043d\u0438\u044e": 1058,
  "\u2581\u0421\u043f\u0435\u0446\u0438\u0430\u043b\u044c\u043d": 1059,
  "voir": 1060,
  "\u2581\u041f": 1061,
  "\u043e\u043a": 1062,
  "\u2581relative": 1063,
  "\u2581D\u00e9claration": 1064,
  "\u2581terme": 1065,
  "\u2581\u041f\u0440\u0435\u0434\u0441\u0435\u0434\u0430\u0442\u0435\u043b\u044c": 1066,
  "\u2581exercice": 1067,
  "\u2581\u0435\u043c\u0443": 1068,
  "\u0438\u0442": 1069,
  "\u2581raison": 1070,
  "\u2581\u0442\u0435\u0440\u0440\u0438\u0442\u043e\u0440\u0438\u0438": 1071,
  "\u25811996": 1072,
  "\u2581n\u00e9cessaire": 1073,
  "\u2581demand\u00e9": 1074,
  "\u2581nationaux": 1075,
  "\u2581\u043f\u0440\u0435\u0434\u0441\u0442\u0430\u0432\u0438\u0442\u0435\u043b\u044c": 1076,
  "\u2581\u043f\u0440\u043e\u0446\u0435\u043d\u0442\u043e\u0432": 1077,
  "\u2581\u0441\u043e\u0433\u043b\u0430\u0441\u043d\u043e": 1078,
  "\u2581\u0440\u0430\u0441\u0441\u043c\u043e\u0442\u0440\u0435\u043d\u0438\u044f": 1079,
  "\u2581Oui": 1080,
  "\u2581qualit\u00e9": 1081,
  "\u25812013": 1082,
  "\u2581\u043c\u043b\u043d": 1083,
  "\u043d\u0438": 1084,
  "\u2581d\u00e9sarmement": 1085,
  "\u2581\u0434\u0440\u0443\u0433\u0438\u043c\u0438": 1086,
  "\u2581\u0431\u043e\u043b\u044c\u0448\u0435": 1087,
  "\u0438\u0445": 1088,
  "\u2581\u0446\u0435\u043b\u0438": 1089,
  "\u2581proc\u00e9dures": 1090,
  "\u2581\u0421\u043e\u0435\u0434\u0438\u043d\u0435\u043d\u043d\u044b": 1091,
  "\u2581donner": 1092,
  "\u2581\u0443\u0447\u0440\u0435\u0436\u0434\u0435\u043d\u0438\u0439": 1093,
  "\u258140": 1094,
  "\u00e9tait": 1095,
  "\u2581Mission": 1096,
  "\u2581\u0442": 1097,
  "\u2581\u043f\u0440\u043e\u0441\u0442\u043e": 1098,
  "\u2581\u043f\u0440\u0435\u0434\u0441\u0442\u0430\u0432\u0438\u0442\u044c": 1099,
  "\u2581celui": 1100,
  "\u2581\u0441\u043e\u0434\u0435\u0439\u0441\u0442\u0432\u0438\u044f": 1101,
  "les": 1102,
  "or": 1103,
  "\u2581fins": 1104,
  "\u2581\u043e\u0441\u0443\u0449\u0435\u0441\u0442\u0432\u043b\u0435\u043d\u0438\u0435": 1105,
  "\u043f\u0440\u0435\u0436\u043d\u0435\u043c\u0443": 1106,
  "\u2581civile": 1107,
  "\u2581\u043c\u0435\u0440\u0435": 1108,
  "D": 1109,
  "\u2581\u00e9ducation": 1110,
  "\u2581sociale": 1111,
  "\u2581\u043e\u043a\u0440\u0443\u0436\u0430\u044e\u0449\u0435\u0439": 1112,
  "\u2581\u0432\u0440\u0435\u043c\u0435\u043d\u0438": 1113,
  "\u2581hommes": 1114,
  "\u2581gouvernementale": 1115,
  "\u2581type": 1116,
  "\u2581\u0440\u0430\u0437\u0432\u0438\u0442\u0438\u0435": 1117,
  "ir": 1118,
  "\u2581\u0437\u0434\u0435\u0441\u044c": 1119,
  "\u2581peu": 1120,
  "\u2581\u0437\u0430\u0441\u0435\u0434\u0430\u043d\u0438\u0438": 1121,
  "\u2581territoire": 1122,
  "\u2581\u0434\u0435\u0439\u0441\u0442\u0432\u0438\u044f": 1123,
  "\u2581\u0433\u0440\u0443\u043f\u043f": 1124,
  "\u2581\u00e9tant": 1125,
  "\u2581avril": 1126,
  "\u2581\u043d\u0430\u0441\u0438\u043b\u0438\u044f": 1127,
  "3": 1128,
  "\u2581voir": 1129,
  "\u2581jusqu": 1130,
  "\u2581\u0410\u0441\u0441\u0430\u043c\u0431\u043b\u0435\u044f": 1131,
  "apr\u00e8s": 1132,
  "\u2581\u043c\u0435\u0436\u0434\u0443\u043d\u0430\u0440\u043e\u0434\u043d\u043e\u0439": 1133,
  "\u2581postes": 1134,
  "\u2581\u043d\u043e\u0432\u044b\u0445": 1135,
  "\u2581\u0441\u043e\u0437\u0434\u0430\u043d\u0438\u044f": 1136,
  "au": 1137,
  "\u2581\u0441\u0440\u0435\u0434\u0438": 1138,
  "\u2581\u0424": 1139,
  "\u2581\u041a\u043e\u043c\u0438\u0441\u0441\u0438\u044f": 1140,
  "\u2581donn\u00e9": 1141,
  ".3": 1142,
  "\u2581\u043e\u0431\u0435\u0441\u043f\u0435\u0447\u0435\u043d\u0438\u044e": 1143,
  "\u2581ann\u00e9e": 1144,
  "\u2581heures": 1145,
  "\u2581Cour": 1146,
  "\u2581\u043f\u0435\u0440\u0441\u043e\u043d\u0430\u043b\u0430": 1147,
  "\u2581Rapport": 1148,
  "\u2581\u043e\u0441\u0443\u0449\u0435\u0441\u0442\u0432\u043b\u0435\u043d\u0438\u0438": 1149,
  "\u043d\u0435": 1150,
  "\u25816.": 1151,
  "\u2581taux": 1152,
  "\u2581aupr\u00e8s": 1153,
  "\u2581\u043a\u043e\u043d\u0442\u0440\u043e\u043b\u044f": 1154,
  "\u2581\u0422\u0430\u043a": 1155,
  ".2": 1156,
  "\u2581texte": 1157,
  "\u2581important": 1158,
  "\u2581transport": 1159,
  "\u2581faveur": 1160,
  "\u2581quoi": 1161,
  "\u0434\u0430": 1162,
  "\u2581grande": 1163,
  "\u2581\u00c7a": 1164,
  "\u2581janvier": 1165,
  "ons": 1166,
  "\u2581\u0442\u0430\u043a\u043e\u0439": 1167,
  "\u2581d\u00e9claration": 1168,
  "\u2581organisation": 1169,
  "\u2581Sud": 1170,
  "\u2581\u043e\u043a\u0442\u044f\u0431\u0440\u044f": 1171,
  "\u2581pr\u00e9sent\u00e9": 1172,
  "P": 1173,
  "\u2581\u043a\u043e\u0442\u043e\u0440\u043e\u043c": 1174,
  "\u2581service": 1175,
  "\u2581probl\u00e8me": 1176,
  "\u2581\u043d\u043e\u044f\u0431\u0440\u044f": 1177,
  "\u2581\u0447\u0430\u0441\u0442\u0438": 1178,
  "la": 1179,
  "\u2581consultatif": 1180,
  "\u2581\u043f\u0435\u0440\u0435\u0434": 1181,
  "\u2581syst\u00e8mes": 1182,
  "\u2581\u043f\u0440\u043e\u0435\u043a\u0442\u043e\u0432": 1183,
  "\u2581vertu": 1184,
  "\u2581Mme": 1185,
  "\u2581d\u00e9cid\u00e9": 1186,
  "\u2581\u0441\u0435\u043d\u0442\u044f\u0431\u0440\u044f": 1187,
  "\u2581contributions": 1188,
  "AC": 1189,
  "\u2581\u041f\u0443\u043d\u043a\u0442": 1190,
  "\u2581\u0441\u0438\u043b\u0443": 1191,
  "\u2581K": 1192,
  "\u2581terrorisme": 1193,
  "\u2581charg\u00e9": 1194,
  "\u2581alors": 1195,
  "org": 1196,
  "\u2581recherche": 1197,
  "\u2581\u00e9l\u00e9ments": 1198,
  "\u2581nouveaux": 1199,
  "\u043d\u043e\u043c": 1200,
  "\u2581Rapporteur": 1201,
  "\u2581\u043f\u043e\u0440\u044f\u0434\u043a\u0435": 1202,
  "\u0438\u0438": 1203,
  "\u2581certaines": 1204,
  "G": 1205,
  "\u043d\u0443": 1206,
  "\u2581Secr\u00e9tariat": 1207,
  "\u2581celle": 1208,
  "\u2581\u043f\u043e\u043b\u043e\u0436\u0435\u043d\u0438\u0439": 1209,
  "\u2581\u0447\u0435\u043b\u043e\u0432\u0435\u043a": 1210,
  "\u2581toi": 1211,
  "ONU": 1212,
  "\u2581n\u00e9cessit\u00e9": 1213,
  "\u2581ni": 1214,
  "ordre": 1215,
  "\u2581deuxi\u00e8me": 1216,
  "\u2581\u0441\u0442\u0430\u0442\u044c\u0435": 1217,
  "\u2581\u043d\u0430\u043c": 1218,
  "\u2581\u0434\u0432\u0443\u0445": 1219,
  "\u0435\u0442\u0441\u044f": 1220,
  "application": 1221,
  "\u2581\u043f\u0440\u043e\u0446\u0435\u0434\u0443\u0440\u044b": 1222,
  "\u2581m\u00e9canismes": 1223,
  "\u2581nouvelle": 1224,
  "\u2581\u043a\u043e\u0442\u043e\u0440\u043e\u0433\u043e": 1225,
  "\u2581\u043e\u0431\u0449\u0435\u0441\u0442\u0432\u0430": 1226,
  "\u2581fournir": 1227,
  "\u2581Minist\u00e8re": 1228,
  "\u2581:": 1229,
  "\u2581celles": 1230,
  "\u2581aider": 1231,
  "\u2581\u0447\u0438\u0441\u043b\u0430": 1232,
  "\u2581D\u00e9partement": 1233,
  "\u2581\u0414\u043e": 1234,
  "\u2581\u041e\u041e\u041d": 1235,
  "\u2581r\u00e9fugi\u00e9s": 1236,
  "\u2581devant": 1237,
  "\u2581responsabilit\u00e9": 1238,
  "\u2581\u0441\u0432\u043e\u0435\u0433\u043e": 1239,
  "\u2581\u0434\u0430": 1240,
  "\u2581\u043d\u0435\u0433\u043e": 1241,
  "\u2581\u043e\u0447\u0435\u043d\u044c": 1242,
  "\u043a\u0435": 1243,
  "\u2581entreprises": 1244,
  "\u2581accord": 1245,
  "action": 1246,
  "\u2581juste": 1247,
  "\u2581\u0441\u0442\u0440\u0430\u043d\u0430\u043c": 1248,
  "\u2581pouvoir": 1249,
  "\u2581\u0433\u043e\u0441\u0443\u0434\u0430\u0440\u0441\u0442\u0432\u043e": 1250,
  "\u2581\u043e\u0431\u0449\u0435\u0433\u043e": 1251,
  "\u2581actes": 1252,
  "\u2581zones": 1253,
  "\u2581communication": 1254,
  "\u2581peux": 1255,
  "\u2581\u043c\u0435\u043d\u0435\u0435": 1256,
  "\u2581\u041d\u0443": 1257,
  "\u2581\u0437\u043d\u0430\u044e": 1258,
  "\u2581relatifs": 1259,
  "\u043f": 1260,
  "M": 1261,
  "\u2581r\u00e9solutions": 1262,
  "\u2581\u0432\u044b\u0448\u0435": 1263,
  "\u2581Qu": 1264,
  "ar": 1265,
  "\u0440\u0430": 1266,
  "\u2581\u043d\u0435\u043f\u0440\u0430\u0432\u0438\u0442\u0435\u043b\u044c\u0441\u0442": 1267,
  "\u2581\u0434\u0435\u043b\u0430": 1268,
  "vous": 1269,
  "\u2581production": 1270,
  "\u2581\u041c\u0435\u0436\u0434\u0443\u043d\u0430\u0440\u043e\u0434\u043d": 1271,
  "\u043d\u044b\u043c\u0438": 1272,
  "\u2581administration": 1273,
  "F": 1274,
  "\u2581\u0443\u0447\u0430\u0441\u0442\u0438\u044f": 1275,
  "\u2581\u043e\u0442\u043c\u0435\u0447\u0430\u0435\u0442": 1276,
  "\u2581r\u00e8glement": 1277,
  "\u2581autochtones": 1278,
  "\u0434\u0443": 1279,
  "\u2581\u043a\u043e\u043d\u0442\u0435\u043a\u0441\u0442\u0435": 1280,
  "\u2581\u0441\u043e\u043e\u0442\u0432\u0435\u0442\u0441\u0442\u0432\u0443\u044e\u0449\u0438\u0435": 1281,
  "\u0438\u044e": 1282,
  "\u2581l\u00e9gislation": 1283,
  "\u2581\u043a\u043e\u043e\u0440\u0434\u0438\u043d\u0430\u0446\u0438\u0438": 1284,
  "\u2581\u0441\u0447\u0435\u0442": 1285,
  "R": 1286,
  "\u2581nos": 1287,
  "\u2581examiner": 1288,
  "\u2581\u00e9galit\u00e9": 1289,
  "\u2581an": 1290,
  "\u2581\u0438\u043d\u0442\u0435\u0440\u0435\u0441\u0430\u0445": 1291,
  "\u2581\u044d\u0442\u043e\u043c\u0443": 1292,
  "\u2581\u043d\u0435\u043e\u0431\u0445\u043e\u0434\u0438\u043c\u043e\u0441\u0442\u0438": 1293,
  "\u043b\u043e": 1294,
  "\u0436": 1295,
  "\u25811993": 1296,
  "\u2581car": 1297,
  "\u2581Comme": 1298,
  "\u2581rien": 1299,
  "\u2581\u043e\u043a\u0430\u0437\u0430\u043d\u0438\u044f": 1300,
  "\u2581\u043e\u043f\u0435\u0440\u0430\u0446\u0438\u0439": 1301,
  "\u2581\u0433\u043e\u0441\u0443\u0434\u0430\u0440\u0441\u0442\u0432\u0430\u043c\u0438": 1302,
  "\u2581\u0447\u0438\u0441\u043b\u043e": 1303,
  "\u2581jamais": 1304,
  "\u2581\u0432\u044b\u043f\u043e\u043b\u043d\u0435\u043d\u0438\u044f": 1305,
  "\u2581bon": 1306,
  "\u2581\u0432\u043e\u0437\u043c\u043e\u0436\u043d\u043e\u0441\u0442\u0435\u0439": 1307,
  "\u2581\u0432\u0430\u0441": 1308,
  "\u2581\u0441\u0435\u0441\u0441\u0438\u044f": 1309,
  "\u2581humanitaire": 1310,
  "\u2581\u043d\u0430\u0440\u043e\u0434\u043e\u0432": 1311,
  "\u2581obligations": 1312,
  "\u2581\u0434\u0432\u0430": 1313,
  "\u2581seulement": 1314,
  "\u2581vers": 1315,
  "\u2581\u043d\u0435\u0439": 1316,
  "\u2581\u0413\u0440\u0443\u043f\u043f\u0430": 1317,
  "\u2581\u0420\u0435\u0441\u043f\u0443\u0431\u043b\u0438\u043a\u0430": 1318,
  "\u2581\u0438\u043c\u0435\u044e\u0442": 1319,
  "\u0415": 1320,
  "\u2581\u0412\u0441\u0435": 1321,
  "\u2581\u043e\u0434\u043d\u043e\u0439": 1322,
  "\u2581\u043c\u0430\u0440\u0442\u0430": 1323,
  "\u2581\u043c\u0435\u0440\u043e\u043f\u0440\u0438\u044f\u0442\u0438\u0439": 1324,
  "\u2581\u0433\u043e\u0432\u043e\u0440\u0438\u0442": 1325,
  "\u2581cela": 1326,
  "\u2581ex": 1327,
  "\u0434\u0438": 1328,
  "\u2581juridique": 1329,
  "\u2581\u0434\u0430\u0436\u0435": 1330,
  "\u2581\u0411": 1331,
  "\u2581grand": 1332,
  "\u2581relatif": 1333,
  "\u2581chose": 1334,
  "\u2581\u043b\u0438\u0446\u0430": 1335,
  "\u2581prise": 1336,
  "\u2581\u043c\u0430\u044f": 1337,
  "\u0436\u0438": 1338,
  "\u2581\u0441\u0442\u0440\u0430\u043d\u0435": 1339,
  "\u2581pu": 1340,
  "is": 1341,
  "\u2581\u043c\u0435\u0441\u0442\u043e": 1342,
  "\u2581utilisation": 1343,
  "\u2581\u043f": 1344,
  "\u2581\u0440\u0430\u0441\u0441\u043c\u043e\u0442\u0440\u0435\u043d\u0438\u0435": 1345,
  "H": 1346,
  "\u2581missions": 1347,
  "\u2581\u0440\u0430\u0437\u0440\u0430\u0431\u043e\u0442\u043a\u0438": 1348,
  "\u2581\u043a\u0430\u0441\u0430\u044e\u0449\u0438\u0445\u0441\u044f": 1349,
  "\u2581indiqu\u00e9": 1350,
  "\u2581r\u00e9gional": 1351,
  "\u2581quand": 1352,
  "\u2581permettre": 1353,
  "\u043b\u044f": 1354,
  "\u2581\u0441\u0440\u0435\u0434\u044b": 1355,
  "\u2581100": 1356,
  "\u2581Bien": 1357,
  "\u043b\u0438\u0441\u044c": 1358,
  "\u2581\u0438\u0437\u043c\u0435\u043d\u0435\u043d\u0438\u044f": 1359,
  "\u0447": 1360,
  "\u2581\u0434\u0430\u043d\u043d\u044b\u0435": 1361,
  "\u2581maintenant": 1362,
  "\u2581haut": 1363,
  "\u0442\u0430": 1364,
  "\u2581\u043f\u0440\u043e\u0434\u043e\u043b\u0436\u0430\u0442\u044c": 1365,
  "\u2581\u043f\u0440\u0435\u0434\u0441\u0442\u0430\u0432\u0438\u0442\u0435\u043b\u0435\u0439": 1366,
  "\u2581forces": 1367,
  "\u2581tenue": 1368,
  "\u2581\u043e\u0431\u044f\u0437\u0430\u0442\u0435\u043b\u044c\u0441\u0442\u0432": 1369,
  "\u2581that": 1370,
  "\u2581beaucoup": 1371,
  "\u2581\u0443\u043a\u0440\u0435\u043f\u043b\u0435\u043d\u0438\u044f": 1372,
  "ra": 1373,
  "\u2581\u0431\u043e\u0440\u044c\u0431\u044b": 1374,
  "\u2581\u043e\u0440\u0433\u0430\u043d\u0438\u0437\u0430\u0446\u0438\u044f\u043c\u0438": 1375,
  "\u2581sein": 1376,
  "\u2581\u0443\u0441\u043b\u043e\u0432\u0438\u044f\u0445": 1377,
  "\u2581\u0438\u043d\u0444\u043e\u0440\u043c\u0430\u0446\u0438\u044f": 1378,
  "\u2581instruments": 1379,
  "\u2581vais": 1380,
  "\u0438\u043b": 1381,
  "\u2581publique": 1382,
  "\u0435\u0435": 1383,
  "I": 1384,
  "\u2581niveaux": 1385,
  "\u2581moment": 1386,
  "\u2581importance": 1387,
  "\u2581\u0444\u0438\u043d\u0430\u043d\u0441\u0438\u0440\u043e\u0432\u0430\u043d\u0438\u044f": 1388,
  "\u2581tels": 1389,
  "\u258100": 1390,
  "\u258145": 1391,
  "\u2581\u0441\u043e\u0442\u0440\u0443\u0434\u043d\u0438\u0447\u0435\u0441\u0442\u0432\u043e": 1392,
  "\u2581soutien": 1393,
  "\u2581\u0430\u043f\u0440\u0435\u043b\u044f": 1394,
  "\u2581principe": 1395,
  "\u0433": 1396,
  "\u2581\u0440\u0435\u043a\u043e\u043c\u0435\u043d\u0434\u0430\u0446\u0438\u0439": 1397,
  "\u2581\u0434\u043e\u0441\u0442\u0443\u043f\u0430": 1398,
  "\u2581avons": 1399,
  "\u2581r\u00e9alisation": 1400,
  "\u2581\u043e\u0431\u0435\u0441\u043f\u0435\u0447\u0435\u043d\u0438\u0435": 1401,
  "\u2581\u0441\u0442\u0440\u0430\u0442\u0435\u0433\u0438\u0438": 1402,
  "\u2581f\u00e9vrier": 1403,
  "\u2581renseignements": 1404,
  "\u2581\u0443\u0441\u043b\u043e\u0432\u0438\u0439": 1405,
  "\u2581\u0443\u0441\u0438\u043b\u0438\u0439": 1406,
  "\u2581\u0441\u043e\u0432\u0435\u0449\u0430\u043d\u0438\u044f": 1407,
  "moi": 1408,
  "\u2581\u044f\u043d\u0432\u0430\u0440\u044f": 1409,
  "\u2581financi\u00e8res": 1410,
  "\u2581aucune": 1411,
  "\u2581quelque": 1412,
  "\u2581\u043f\u0440\u043e\u0446\u0435\u0441\u0441": 1413,
  "\u044b\u043c\u0438": 1414,
  "\u2581\u0433\u043e\u0441\u0443\u0434\u0430\u0440\u0441\u0442\u0432\u0430\u043c": 1415,
  "\u2581liste": 1416,
  "\u2581\u0445\u043e\u0442\u0435\u043b": 1417,
  "\u2581\u042d\u0442\u0438": 1418,
  "\u2581Haut": 1419,
  "\u2581\u043f\u043e\u0442\u0440\u0435\u0431\u043d\u043e\u0441\u0442\u0435\u0439": 1420,
  "\u2581emploi": 1421,
  "\u043e\u0431": 1422,
  "\u2581conflits": 1423,
  "\u2581\u0442\u0430\u043a\u0438\u043c": 1424,
  "\u2581\u043f\u0440\u0430\u0432\u0430\u0445": 1425,
  "\u2581\u0420\u0430\u0431\u043e\u0447\u0435": 1426,
  "\u2581tenir": 1427,
  "\u2581gouvernement": 1428,
  "\u2581r\u00e9gionales": 1429,
  "\u2581vigueur": 1430,
  "\u2581\u0438\u043c\u0435\u043d\u0438": 1431,
  "\u2581attention": 1432,
  "\u2581\u0441\u0434\u0435\u043b\u0430\u0442\u044c": 1433,
  "\u2581\u0441\u0432\u043e\u0435": 1434,
  "\u2581ao\u00fbt": 1435,
  "\u2581\u0425": 1436,
  "m": 1437,
  "\u2581\u0412\u043e": 1438,
  "\u2581fonctionnaires": 1439,
  "\u2581\u0414\u043e\u043a\u043b\u0430\u0434": 1440,
  "\u2581\u0444\u0438\u043d\u0430\u043d\u0441\u043e\u0432\u044b\u0445": 1441,
  "\u2581effets": 1442,
  "\u2581\u0440\u0435\u0430\u043b\u0438\u0437\u0430\u0446\u0438\u0438": 1443,
  "u": 1444,
  ".5": 1445,
  "\u2581\u043e\u0434\u043d\u043e\u0433\u043e": 1446,
  "\u2581r\u00e8gles": 1447,
  "\u2581\u043f\u0440\u043e\u0446\u0435\u043d\u0442\u0430": 1448,
  "\u2581Centre": 1449,
  "\u2581traitement": 1450,
  "\u2581\u0431\u044e\u0434\u0436\u0435\u0442\u0430": 1451,
  "/2": 1452,
  "par": 1453,
  "\u2581\u043d\u0435\u043a\u043e\u0442\u043e\u0440\u044b\u0445": 1454,
  "\u2581recours": 1455,
  "\u2581certain": 1456,
  "\u2581\u0432\u043e\u043f\u0440\u043e\u0441\u0430": 1457,
  "\u2581\u0434\u043e\u043a\u0443\u043c\u0435\u043d\u0442": 1458,
  "\u2581mission": 1459,
  "\u2581continuer": 1460,
  "\u2581libert\u00e9": 1461,
  "\u2581\u0440\u0430\u0437\u0440\u0430\u0431\u043e\u0442\u043a\u0435": 1462,
  "\u044e\u0442": 1463,
  "\u2581conf\u00e9rence": 1464,
  "\u2581\u043d\u0430\u043f\u0440\u0438\u043c\u0435\u0440": 1465,
  "\u0441\u0442\u0438": 1466,
  "\u2581provisoire": 1467,
  "information": 1468,
  "\u2581fonctions": 1469,
  "\u2581peuples": 1470,
  "\u2581\u043f\u0440\u043e\u0441\u0438\u0442": 1471,
  "\u2581jeunes": 1472,
  "\u2581\u0413\u0440\u0443\u043f\u043f\u044b": 1473,
  "ic": 1474,
  "\u2581nombreux": 1475,
  "\u2581fonction": 1476,
  "\u2581total": 1477,
  "\u2581IV": 1478,
  "\u2581\u0437\u0430\u0441\u0435\u0434\u0430\u043d\u0438\u0439": 1479,
  "\u2581conflit": 1480,
  "\u2581\u043a\u0430\u0442\u0435\u0433\u043e\u0440\u0438\u0438": 1481,
  "\u2581\u041e\u0440\u0433\u0430\u043d\u0438\u0437\u0430\u0446\u0438\u044f": 1482,
  "\u2581sexes": 1483,
  "\u2581cr\u00e9er": 1484,
  "\u2581\u043f\u043b\u0430\u043d\u0435": 1485,
  "\u2581\u044f\u0434\u0435\u0440\u043d\u043e\u0433\u043e": 1486,
  "\u2581biens": 1487,
  "\u2581\u0421\u0442\u043e\u0440\u043e\u043d": 1488,
  "\u2581\u0443\u0441\u0442\u043e\u0439\u0447\u0438\u0432\u043e\u0433\u043e": 1489,
  "\u2581r\u00e9duction": 1490,
  "\u2581p\u00e9nale": 1491,
  "\u2581actuellement": 1492,
  "\u0442\u0438": 1493,
  "\u2581quatre": 1494,
  "\u2581Union": 1495,
  "\u2581\u0422": 1496,
  "\u2581R\u00e8glement": 1497,
  "\u2581formes": 1498,
  "\u2581consultations": 1499,
  "\u2581\u043f\u043e\u0434\u0434\u0435\u0440\u0436\u0430\u043d\u0438\u044e": 1500,
  "\u0431": 1501,
  "\u2581initiatives": 1502,
  "st": 1503,
  "\u043b\u0430\u0441\u044c": 1504,
  "\u2581\u044d\u0444\u0444\u0435\u043a\u0442\u0438\u0432\u043d\u043e\u0441\u0442\u0438": 1505,
  "\u2581by": 1506,
  "\u2581\u043d\u0438\u043c": 1507,
  "\u2581pratique": 1508,
  "\u2581\u0437\u0430\u0449\u0438\u0442\u0435": 1509,
  "\u2581commun": 1510,
  "\u2581...": 1511,
  "\u2581face": 1512,
  "\u258132": 1513,
  "\u2581strat\u00e9gie": 1514,
  "\u044f\u0442": 1515,
  "\u2581\u043a\u0430\u0441\u0430\u044e\u0449\u0438\u0435\u0441\u044f": 1516,
  "\u2581\u0441\u043e\u0437\u0434\u0430\u043d\u0438\u0435": 1517,
  "\u2581\u0434\u043e\u043a\u0443\u043c\u0435\u043d\u0442\u0430": 1518,
  "\u2581\u043e\u0434\u043d\u0430\u043a\u043e": 1519,
  "\u043a\u043e": 1520,
  "\u2581\u043f\u043e\u0432\u044b\u0448\u0435\u043d\u0438\u044f": 1521,
  "te": 1522,
  "\u2581\u043e\u043d\u043e": 1523,
  "\u2581\u043f\u0440\u0435\u0434\u043b\u043e\u0436\u0435\u043d\u0438\u044f": 1524,
  "\u25819.": 1525,
  "\u2581\u0434\u043e\u043a\u0443\u043c\u0435\u043d\u0442\u043e\u0432": 1526,
  "ticuli\u00e8rement": 1527,
  "\u2581con": 1528,
  "\u2581eux": 1529,
  "\u2581font": 1530,
  "\u0440\u0438": 1531,
  "\u2581\u041c\u043d\u0435": 1532,
  "\u2581\u043b\u0438\u043a\u0432\u0438\u0434\u0430\u0446\u0438\u0438": 1533,
  "\u2581faciliter": 1534,
  "T": 1535,
  "\u2581sociaux": 1536,
  "\u2581rendre": 1537,
  "\u2581telles": 1538,
  "\u2581\u0430\u0434\u043c\u0438\u043d\u0438\u0441\u0442\u0440\u0430\u0442\u0438\u0432\u043d\u044b": 1539,
  "\u2581diff\u00e9rents": 1540,
  "\u2581relations": 1541,
  "\u2581Article": 1542,
  "p": 1543,
  "\u2581ii": 1544,
  "\u2581\u0420\u0430\u0431\u043e\u0447\u0430\u044f": 1545,
  "\u2581pro": 1546,
  "\u2581\u041e\u0442": 1547,
  "\u2581sommes": 1548,
  "\u2581objet": 1549,
  "\u043e\u0441\u0442\u044c": 1550,
  "\u2581\u0442\u043e\u0442": 1551,
  "\u2581\u043d\u0443\u0436\u043d\u043e": 1552,
  "\u2581reste": 1553,
  "\u2581\u043f\u043e\u043a\u0430": 1554,
  "\u2581d\u00e9mocratique": 1555,
  "\u2581\u043f\u043e\u043b\u043e\u0436\u0435\u043d\u0438\u0435": 1556,
  "\u2581\u042d": 1557,
  "\u2581d\u00e9l\u00e9gations": 1558,
  "\u0441\u043c\u043e\u0442\u0440\u044f": 1559,
  "\u25812014": 1560,
  "\u2581\u0441\u0438\u0441\u0442\u0435\u043c": 1561,
  "\u2581\u0442\u0440\u0443\u0434\u0430": 1562,
  "\u2581\u0410\u043c\u0435\u0440\u0438\u043a\u0438": 1563,
  "\u2581\u043f\u0440\u043e\u0446\u0435\u0441\u0441\u0435": 1564,
  "\u2581es": 1565,
  "\u2581\u043a\u043e\u043d\u0432\u0435\u043d\u0446\u0438\u0438": 1566,
  "\u2581\u0442\u0430\u043a\u043e\u0433\u043e": 1567,
  "\u2581forme": 1568,
  "\u2581\u0441\u043b\u0435\u0434\u0443\u044e\u0449\u0438\u0435": 1569,
  "\u2581\u041f\u043e\u044d\u0442\u043e\u043c\u0443": 1570,
  "\u2581\u0440\u0435\u0433\u0438\u043e\u043d\u0430\u043b\u044c\u043d\u044b\u0445": 1571,
  "\u2581\u044d\u0442\u0443": 1572,
  "\u2581\u0431\u0435\u0436\u0435\u043d\u0446\u0435\u0432": 1573,
  "\u2581\u0432\u043e\u0437\u043c\u043e\u0436\u043d\u043e": 1574,
  "\u2581ton": 1575,
  "\u2581long": 1576,
  "\u2581Tout": 1577,
  "\u2581bonne": 1578,
  "\u2581\u0421\u043f\u0435\u0446\u0438\u0430\u043b\u044c\u043d\u044b\u0439": 1579,
  "\u2581\u0434\u043e\u0441\u0442\u0443\u043f": 1580,
  "\u2581\u0441\u0442\u0440\u0430\u043d\u0430\u043c\u0438": 1581,
  "\u258133": 1582,
  "\u2581torture": 1583,
  "\u2581\u0441\u0435\u0439\u0447\u0430\u0441": 1584,
  "\u2581\u043a\u043e\u043d\u0444\u0435\u0440\u0435\u043d\u0446\u0438\u0438": 1585,
  "\u2581\u0440\u0430\u0441\u0441\u043c\u043e\u0442\u0440\u0435\u0442\u044c": 1586,
  "\u2581observations": 1587,
  "\u2581Pacte": 1588,
  "hui": 1589,
  "\u2581examin\u00e9": 1590,
  "\u2581pr\u00e9senter": 1591,
  "\u2581\u0442\u0440\u0438": 1592,
  "\u2581\u043a\u043e\u0442\u043e\u0440\u044b\u043c": 1593,
  "\u2581with": 1594,
  "\u2581r\u00e9duire": 1595,
  "\u2581enfant": 1596,
  "\u258134": 1597,
  "\u2581\u0442\u0430\u043c": 1598,
  "\u2581objectif": 1599,
  "\u2581gr\u00e2ce": 1600,
  "th": 1601,
  "\u2581\u0440\u0430\u0431\u043e\u0442\u0430": 1602,
  "\u2581\u0445\u0430\u0440\u0430\u043a\u0442\u0435\u0440": 1603,
  "art": 1604,
  "\u2581r\u00e9gions": 1605,
  "\u2581\u043c\u043e\u0433\u043b\u0438": 1606,
  "\u2581avez": 1607,
  "\u2581vu": 1608,
  "\u2581oeuvre": 1609,
  "\u2581\u00e9tabli": 1610,
  "tu": 1611,
  "\u2581.\"": 1612,
  "\u2581\u0434\u0435": 1613,
  "\u2581Point": 1614,
  "\u2581adoption": 1615,
  "\u2581\u043f\u0440\u0435\u0434\u0441\u0442\u0430\u0432\u043b\u0435\u043d\u0438\u044f": 1616,
  "\u2581\u0441\u0444\u0435\u0440\u0435": 1617,
  "\u258148": 1618,
  "\u2581\u043c\u0435\u0441\u0442\u0430\u0445": 1619,
  "\u2581\u0446\u0435\u043b\u043e\u043c": 1620,
  "\u2581\u0437\u0434\u0440\u0430\u0432\u043e\u043e\u0445\u0440\u0430\u043d\u0435\u043d\u0438\u044f": 1621,
  "\u2581accords": 1622,
  "\u2581\u0441\u043e\u0442\u0440\u0443\u0434\u043d\u0438\u0447\u0435\u0441\u0442\u0432\u0435": 1623,
  "\u2581\u043f\u0440\u0435\u0434\u0443\u0441\u043c\u0430\u0442\u0440\u0438\u0432\u0430\u0435\u0442": 1624,
  "\u2581proposition": 1625,
  "\u2581Al": 1626,
  "\u2581\u0434\u0435\u043d\u044c": 1627,
  "\u2581\u0432\u0441\u0451": 1628,
  "\u2581\u0420": 1629,
  "\u2581d\u00e9bat": 1630,
  "\u041a": 1631,
  "\u2581\u0441\u043b\u0443\u0436\u0431\u044b": 1632,
  "\u2581\u043e\u0431\u044f\u0437\u0430\u0442\u0435\u043b\u044c\u0441\u0442\u0432\u0430": 1633,
  "\u2581\u043b\u0438\u0431\u043e": 1634,
  "\u2581lois": 1635,
  "\u2581\u043d\u0435\u043a\u043e\u0442\u043e\u0440\u044b\u0435": 1636,
  "\u2581\u043d\u0430\u0441\u0442\u043e\u044f\u0442\u0435\u043b\u044c\u043d\u043e": 1637,
  "\u2581points": 1638,
  "\u258136": 1639,
  "\u2581ex\u00e9cution": 1640,
  "\u2581ailleurs": 1641,
  "\u2581Europe": 1642,
  "\u0441\u043a\u043e\u0439": 1643,
  "\u2581\u043f\u0435\u0440\u0438\u043e\u0434\u0430": 1644,
  "\u258137": 1645,
  "el": 1646,
  "\u2581participer": 1647,
  "\u2581\u041f\u0420\u041e\u041e\u041d": 1648,
  "\u2581cinq": 1649,
  "\u2581\u0437\u0434\u043e\u0440\u043e\u0432\u044c\u044f": 1650,
  "\u2581\u041b\u0430": 1651,
  "\u2581valeur": 1652,
  "examen": 1653,
  "\u2581\u0433\u0440\u0430\u0436\u0434\u0430\u043d\u0441\u043a\u043e\u0433\u043e": 1654,
  "\u2581\u0432\u043b\u0430\u0441\u0442\u0438": 1655,
  "\u2581\u0441\u0442\u0435\u043f\u0435\u043d\u0438": 1656,
  "\u2581\u0441\u0432\u0435\u0434\u0435\u043d\u0438\u044e": 1657,
  "\u2581\u043d\u0435\u0441\u043a\u043e\u043b\u044c\u043a\u043e": 1658,
  "\u0435\u043d": 1659,
  "ne": 1660,
  "\u2581pourraient": 1661,
  "\u2581\u043e\u0442\u0432\u0435\u0442\u0441\u0442\u0432\u0435\u043d\u043d\u043e\u0441\u0442\u044c": 1662,
  "\u2581\u0434\u0435\u043b\u0430\u043c": 1663,
  "\u2581violations": 1664,
  "\u258135": 1665,
  "\u2581\u043e\u0442\u0432\u0435\u0442\u0441\u0442\u0432\u0435\u043d\u043d\u043e\u0441\u0442\u0438": 1666,
  "\u2581DES": 1667,
  "\u2581r\u00e9gionaux": 1668,
  "\u2581suivants": 1669,
  "\u2581juridiques": 1670,
  "\u2581\u043a\u043e\u0440\u0435\u043d\u043d\u044b\u0445": 1671,
  "\u2581pleinement": 1672,
  "\u2581\u0437\u0440\u0435\u043d\u0438\u044f": 1673,
  "\u2581jours": 1674,
  "\u2581\u2022": 1675,
  "\u0438\u0448\u044c": 1676,
  "\u2581appliquer": 1677,
  "\u2581\u043d\u0438\u0449\u0435\u0442\u044b": 1678,
  "\u2581\u044d\u0442\u0430": 1679,
  "\u2581\u0443\u0447\u0440\u0435\u0436\u0434\u0435\u043d\u0438\u044f": 1680,
  "\u2581\u043f\u0440\u0438\u043d\u0446\u0438\u043f\u043e\u0432": 1681,
  "\u2581PNUD": 1682,
  "\u258160": 1683,
  "\u2581\u0434\u043e\u043a\u043b\u0430\u0434\u043e\u0432": 1684,
  "\u2581Pourquoi": 1685,
  "age": 1686,
  "\u2581dialogue": 1687,
  "\u2581collaboration": 1688,
  "\u2581\u0437\u0430\u0438\u043d\u0442\u0435\u0440\u0435\u0441\u043e\u0432\u0430\u043d\u043d\u044b": 1689,
  "\u2581aucun": 1690,
  "\u2581statistiques": 1691,
  "\u2581int\u00e9rieur": 1692,
  "\u2581efficace": 1693,
  "\u2581\u043f\u0440\u043e\u0432\u0435\u0434\u0435\u043d\u0438\u0435": 1694,
  "%": 1695,
  "\u2581\u0436\u0438\u0437\u043d\u044c": 1696,
  "\u2581participants": 1697,
  "\u0442\u0435": 1698,
  "\u2581\u0440\u0430\u0439\u043e\u043d\u0430\u0445": 1699,
  "\u2581or": 1700,
  "\u2581\u0443\u0440\u043e\u0432\u043d\u044f\u0445": 1701,
  "\u2581aspects": 1702,
  "\u2581\u0436\u0435\u043d\u0449\u0438\u043d\u044b": 1703,
  "\u2581\u043e\u0431\u0449\u0435\u0439": 1704,
  "\u2581\u0414\u0435\u043a\u043b\u0430\u0440\u0430\u0446\u0438\u0438": 1705,
  "\u2581\u043f\u043b\u0430\u043d\u0430": 1706,
  "\u2581\u0440\u0435\u0437\u0443\u043b\u044c\u0442\u0430\u0442\u043e\u0432": 1707,
  "\u2581\u043f\u0440\u0438\u043b\u043e\u0436\u0435\u043d\u0438\u0435": 1708,
  "\u2581\u0440\u0430\u0437\u043c\u0435\u0440\u0435": 1709,
  "\u2581statut": 1710,
  "\u0411": 1711,
  "\u2581\u043e\u0431\u043b\u0430\u0441\u0442\u044f\u0445": 1712,
  "\u2581\u0410\u0444\u0440\u0438\u043a\u0438": 1713,
  "\u2581\u00e9laboration": 1714,
  "\u2581\u0440\u0435\u0431\u0435\u043d\u043a\u0430": 1715,
  "\u2581\u0440\u0435\u043a\u043e\u043c\u0435\u043d\u0434\u0443\u0435\u0442": 1716,
  "\u2581\u0432\u0430\u043c": 1717,
  "\u2581contexte": 1718,
  "\u2581\u0442\u0435": 1719,
  "\u2581souvent": 1720,
  "\u0422": 1721,
  "\u2581\u0438\u043c\u044f": 1722,
  "\u0432\u0430": 1723,
  "\u2581Tribunal": 1724,
  "\u2581ta": 1725,
  "\u0432\u0435\u043d\u043d\u044b\u0445": 1726,
  "\u2581tel": 1727,
  "\u2581peuple": 1728,
  ".6": 1729,
  "\u2581articles": 1730,
  "\u2581sorte": 1731,
  "id": 1732,
  "\u2581\u043f\u0440\u043e\u0446\u0435\u0434\u0443\u0440": 1733,
  "\u2581Repr\u00e9sentant": 1734,
  "\u2581\u043c\u043e\u0433\u0443": 1735,
  "\u2581\u0441\u0442\u043e\u0440\u043e\u043d": 1736,
  "\u2581\u043d\u0430\u0446\u0438\u043e\u043d\u0430\u043b\u044c\u043d\u043e\u0433\u043e": 1737,
  "\u258139": 1738,
  "\u2581\u043f\u043e\u043b\u0438\u0442\u0438\u0447\u0435\u0441\u043a\u0438\u0445": 1739,
  "\u2581\u043f\u0440\u0430\u0432\u0438\u043b": 1740,
  "\u2581\u043c\u043d\u043e\u0433\u0438\u0445": 1741,
  "\u2581\u0432\u0442\u043e\u0440\u043e\u0439": 1742,
  "\u2581\u043f\u043e\u043b\u0438\u0446\u0438\u0438": 1743,
  "\u2581eau": 1744,
  "\u2581strat\u00e9gies": 1745,
  "\u2581propositions": 1746,
  "\u2581permis": 1747,
  "\u2581\u0418\u0437": 1748,
  "\u2581\u0440\u0430\u0441\u0445\u043e\u0434\u044b": 1749,
  "\u2581\u043f\u043e\u0432\u043e\u0434\u0443": 1750,
  "\u0447\u0435": 1751,
  "\u2581risques": 1752,
  "\u2581\u041f\u043e\u0441\u043b\u0435": 1753,
  "\u2581lorsque": 1754,
  "\u2581mat\u00e9riel": 1755,
  "\u0438\u0442\u0435": 1756,
  "\u2581dis": 1757,
  "\u2581sens": 1758,
  "\u2581Code": 1759,
  "\u2581\u0441\u0432\u043e\u0439": 1760,
  "\u2581\u0430\u0432\u0433\u0443\u0441\u0442\u0430": 1761,
  "\u2581\u043e\u0431\u0441\u043b\u0443\u0436\u0438\u0432\u0430\u043d\u0438\u044f": 1762,
  "\u2581m\u00e9thodes": 1763,
  "\u2581In": 1764,
  "\u2581\u043f\u0440\u043e\u0438\u0437\u0432\u043e\u0434\u0441\u0442\u0432\u0430": 1765,
  "\u2581dernier": 1766,
  "\u2581\u043d\u0430\u0438\u0431\u043e\u043b\u0435\u0435": 1767,
  "\u2581plans": 1768,
  "\u2581\u043d\u0438\u0436\u0435": 1769,
  "\u2581Gen\u00e8ve": 1770,
  "\u2581New": 1771,
  "\u2581changements": 1772,
  "\u2581\u0432\u0438\u0434\u0435": 1773,
  "\u2581diverses": 1774,
  "\u2581\u043d\u0430\u0446\u0438\u043e\u043d\u0430\u043b\u044c\u043d\u043e\u043c": 1775,
  "\u2581anglais": 1776,
  "\u2581\u0412\u0418\u0427": 1777,
  "\u2581disposition": 1778,
  "\u2581priv\u00e9": 1779,
  "\u2581filles": 1780,
  "\u2581W": 1781,
  "\u2581militaires": 1782,
  "\u2581cr\u00e9\u00e9": 1783,
  "\u2581\u0445\u043e\u0442\u044f": 1784,
  "\u2581biennal": 1785,
  "\u2581\u0434\u043e\u043a\u0443\u043c\u0435\u043d\u0442\u0435": 1786,
  "\u0431\u0430": 1787,
  "\u2581r\u00e9forme": 1788,
  "\u2581divers": 1789,
  "\u0434\u043e": 1790,
  "\u0432\u0438\u043d": 1791,
  "\u2581capacit\u00e9": 1792,
  "\u2581\u0432\u043a\u043b\u0430\u0434": 1793,
  "\u2581partir": 1794,
  "\u2581prot\u00e9ger": 1795,
  "\u2581partenaires": 1796,
  "\u2581\u043f\u043e\u043c\u043e\u0449\u044c\u044e": 1797,
  "\u2581be": 1798,
  "\u2581\u041f\u0440\u043e\u0433\u0440\u0430\u043c\u043c\u044b": 1799,
  "\u2581\u00e9tablir": 1800,
  "\u2581soumis": 1801,
  "\u2581\u0441\u0432\u044f\u0437\u0430\u043d\u043d\u044b\u0435": 1802,
  "N": 1803,
  "\u0438\u0437": 1804,
  "\u2581Ma": 1805,
  "\u2581aurait": 1806,
  "ter": 1807,
  "\u2581davantage": 1808,
  "\u2581\u0444\u0435\u0432\u0440\u0430\u043b\u044f": 1809,
  "accord": 1810,
  "\u2581\u043a\u043e\u0442\u043e\u0440\u0443\u044e": 1811,
  "\u2581\u043a\u043e\u043d\u043a\u0440\u0435\u0442\u043d\u044b\u0445": 1812,
  "\u2581\u043a\u043e": 1813,
  "\u2581\u043f\u0440\u0435\u0434\u0441\u0442\u0430\u0432\u0438\u0442\u0435\u043b\u044f": 1814,
  "\u2581\u0440\u0435\u0433\u0438\u043e\u043d\u0435": 1815,
  "\u2581propos\u00e9": 1816,
  "\u0425": 1817,
  "\u2581appel": 1818,
  "\u2581\u0410\u0441\u0441\u0430\u043c\u0431\u043b\u0435\u0435": 1819,
  "\u2581\u0440\u0435\u0437\u0443\u043b\u044c\u0442\u0430\u0442\u044b": 1820,
  "\u2581\u041f\u0440": 1821,
  "\u2581\u0425\u043e\u0442\u044f": 1822,
  "\u2581\u043c\u0435\u0445\u0430\u043d\u0438\u0437\u043c\u043e\u0432": 1823,
  "\u2581\u0445\u043e\u0447\u0443": 1824,
  "\u2581\u0441\u043e\u0433\u043b\u0430\u0448\u0435\u043d\u0438\u044f": 1825,
  "*": 1826,
  "\u2581zone": 1827,
  "\u2581Dieu": 1828,
  "\u2581risque": 1829,
  "\u2581\u043f\u0430\u0440": 1830,
  "im": 1831,
  "\u2581\u0441\u043e\u0446\u0438\u0430\u043b\u044c\u043d\u043e\u0439": 1832,
  "\u2581\u0438\u0441\u043f\u043e\u043b\u044c\u0437\u043e\u0432\u0430\u0442\u044c": 1833,
  "\u2581\u0442\u043e\u0447\u043a\u0438": 1834,
  "\u2581is": 1835,
  "\u2581financi\u00e8re": 1836,
  "\u2581\u0440\u0435": 1837,
  "ol": 1838,
  "\u2581crime": 1839,
  "\u2581\u0442\u0440\u0435\u0445": 1840,
  "\u2581\u0440\u0435\u0441\u0443\u0440\u0441\u044b": 1841,
  "\u2581\u0447\u0430\u0441\u0442\u044c": 1842,
  "\u2581\u043f\u043e\u0441\u0440\u0435\u0434\u0441\u0442\u0432\u043e\u043c": 1843,
  "\u2581garantir": 1844,
  "\u2581guerre": 1845,
  "\u2581mort": 1846,
  "\u2581suit": 1847,
  "\u2581technologies": 1848,
  "\u2581\u043d\u0438\u043c\u0438": 1849,
  "\u2581faits": 1850,
  "\u2581r\u00e9gime": 1851,
  "\u2581\u0441\u043e\u0441\u0442\u0430\u0432": 1852,
  "ate": 1853,
  "\u0432\u043e": 1854,
  "\u2581\u0441\u043b\u0443\u0447\u0430\u0435\u0432": 1855,
  "\u2581\u0434\u043e\u043a\u043b\u0430\u0434\u044b": 1856,
  "\u258138": 1857,
  "\u0434\u0435": 1858,
  "\u2581\u043f\u043e\u0434\u0433\u043e\u0442\u043e\u0432\u043a\u0435": 1859,
  "\u2581\u043c\u0438\u0440\u0435": 1860,
  "\u2581veiller": 1861,
  "\u2581\u043a\u043e\u043d\u0441\u0443\u043b\u044c\u0442\u0430\u0446\u0438\u0439": 1862,
  "\u2581\u043f\u043e\u0434\u0434\u0435\u0440\u0436\u043a\u0435": 1863,
  "\u2581suppl\u00e9mentaires": 1864,
  "\u2581\u0415": 1865,
  "programme": 1866,
  "\u2581\u043d\u0430\u0446\u0438\u043e\u043d\u0430\u043b\u044c\u043d\u043e\u0439": 1867,
  "\u2581\u0415\u0433\u043e": 1868,
  "\u2581poursuivre": 1869,
  "\u0443\u0447\u0430\u0441\u0442\u043d\u0438\u043a": 1870,
  "\u2581r\u00e9serve": 1871,
  "\u2581march\u00e9": 1872,
  "\u2581\u043a\u0430\u043a\u043e\u0439": 1873,
  "\u2581judiciaire": 1874,
  "\u2581ai": 1875,
  "\u2581\u0441\u0438\u043b": 1876,
  "\u2581pense": 1877,
  "\u0438\u0441\u044c": 1878,
  "\u2581Division": 1879,
  "\u2581\u0441\u0438\u0442\u0443\u0430\u0446\u0438\u0438": 1880,
  "\u2581cause": 1881,
  "\u2581\u0441\u043e\u0446\u0438\u0430\u043b\u044c\u043d\u043e\u0433\u043e": 1882,
  "\u2581parce": 1883,
  "\u2581interne": 1884,
  "\u0441\u043a\u0438\u0445": 1885,
  "\u2581\u043f\u0435\u0440\u0432\u043e\u0439": 1886,
  "\u2581\u0438\u043c\u0435\u0442\u044c": 1887,
  "\u2581\u00e9tude": 1888,
  "\u2581civils": 1889,
  "\u2581\u0438\u0441\u043f\u043e\u043b\u044c\u0437\u043e\u0432\u0430\u043d\u0438\u0435": 1890,
  "\u2581\u043a\u043e\u043d\u0441\u0443\u043b\u044c\u0442\u0430\u0446\u0438\u0438": 1891,
  "\u2581planification": 1892,
  "\u0441\u0442\u0440": 1893,
  "aide": 1894,
  "\u2581\u044d\u043a\u043e\u043d\u043e\u043c\u0438\u0447\u0435\u0441\u043a\u043e\u0433\u043e": 1895,
  "\u2581\u0441\u043e\u043e\u0431\u0449\u0435\u0441\u0442\u0432\u0430": 1896,
  "\u2581\u043f\u0440\u0435\u0434\u043b\u043e\u0436\u0435\u043d\u0438\u0435": 1897,
  "ac": 1898,
  "\u2581\u0441\u0438\u043b\u044b": 1899,
  "\u2581permanent": 1900,
  "\u0441\u0442\u0432\u0430": 1901,
  "\u25811992": 1902,
  "\u2581fond": 1903,
  "\u258147": 1904,
  "\u2581d\u00e9tention": 1905,
  "\u2581\u043f\u0440\u0435\u0441\u0442\u0443\u043f\u043d\u043e\u0441\u0442\u0438": 1906,
  "\u2581\u043f\u0440\u0435\u0434\u0441\u0442\u0430\u0432\u043b\u044f\u0435\u0442": 1907,
  "\u2581\u043f\u0440\u043e\u0432\u0435\u0441\u0442\u0438": 1908,
  "\u2581diff\u00e9rentes": 1909,
  "\u2581trouver": 1910,
  "dessus": 1911,
  "\u2581Comment": 1912,
  "\u0441\u043a\u043e\u0433\u043e": 1913,
  "\u2581\u0434\u0435\u043b\u0435\u0433\u0430\u0446\u0438\u044f": 1914,
  "\u2581responsables": 1915,
  "\u2581principaux": 1916,
  "\u2581Plan": 1917,
  "\u2581comment": 1918,
  "\u2581poste": 1919,
  "environnement": 1920,
  "\u2581bureaux": 1921,
  "\u2581telle": 1922,
  "\u2581Sous": 1923,
  "\u2581lequel": 1924,
  "\u2581traite": 1925,
  "us": 1926,
  "\u2581\u041f\u0440\u043e": 1927,
  "\u2581\u043f\u043e\u043b\u043d\u043e\u0441\u0442\u044c\u044e": 1928,
  "\u2581\u042d\u0442\u043e\u0442": 1929,
  "\u2581\u0415\u042d\u041a": 1930,
  "\u2581surveillance": 1931,
  "\u2581\u0443\u0441\u043b\u0443\u0433\u0438": 1932,
  "\u2581\u043c\u043d\u043e\u0433\u043e": 1933,
  "\u0413": 1934,
  "\u258149": 1935,
  "\u2581\u0434\u043e\u043b\u0436\u043d\u043e\u0441\u0442\u0438": 1936,
  "\u2581\u0441\u0435\u043a\u0442\u043e\u0440\u0430": 1937,
  "\u2581Am\u00e9rique": 1938,
  "\u2581plupart": 1939,
  "\u0448\u0430": 1940,
  "\u2581croissance": 1941,
  "\u2581R\u00e9union": 1942,
  "\u2581portant": 1943,
  "\u2581\u0441\u0447\u0438\u0442\u0430\u0435\u0442": 1944,
  "\u2581Royaume": 1945,
  "\u2581\u0432\u0438\u0434\u043e\u0432": 1946,
  "\u0430\u0442\u044c": 1947,
  "\u041e": 1948,
  "\u2581m\u00e9canisme": 1949,
  "\u2581possibilit\u00e9": 1950,
  "\u2581soins": 1951,
  "\u2581\u0438\u043c\u0438": 1952,
  "\u2581publics": 1953,
  "\u2581engagements": 1954,
  "\u2581nature": 1955,
  "\u258142": 1956,
  "\u2581d\u00e9fense": 1957,
  "\u2581continue": 1958,
  "\u2581\u043d\u043e\u0440\u043c": 1959,
  "\u2581fonctionnement": 1960,
  "\u2581\u0443\u0447\u0430\u0441\u0442\u043d\u0438\u043a\u043e\u0432": 1961,
  "\u2581v": 1962,
  "\u2581\u0445\u043e\u0440\u043e\u0448\u043e": 1963,
  "\u2581n\u00e9gociations": 1964,
  "\u2581CEE": 1965,
  "\u2581\u0441\u043e\u0434\u0435\u0439\u0441\u0442\u0432\u0438\u0435": 1966,
  "\u2581\u0432\u0441\u0435\u0439": 1967,
  "\u0447\u043b\u0435\u043d\u043e\u0432": 1968,
  "\u2581centres": 1969,
  "\u2581\u043c\u0443\u0436\u0447\u0438\u043d": 1970,
  "\u2581Russie": 1971,
  "\u2581avis": 1972,
  "\u2581pourquoi": 1973,
  "\u2581F\u00e9d\u00e9ration": 1974,
  "\u0418": 1975,
  "\u2581recommande": 1976,
  "\u2581ex\u00e9cutif": 1977,
  "\u2581ait": 1978,
  "\u258141": 1979,
  "\u258144": 1980,
  "\u2581\u042d\u0442\u0430": 1981,
  "\u2581LA": 1982,
  "\u2581\u0428": 1983,
  "TRANS": 1984,
  "\u2581quelques": 1985,
  "\u2581\u043f\u043b\u0430\u043d": 1986,
  "\u2581\u043e\u0431\u0441\u0443\u0436\u0434\u0435\u043d\u0438\u044f": 1987,
  "/1": 1988,
  "\u2581directives": 1989,
  "li": 1990,
  "\u2581troisi\u00e8me": 1991,
  "ch": 1992,
  "\u044e\u0442\u0441\u044f": 1993,
  "\u2581\u0410\u0444\u0440\u0438\u043a\u0435": 1994,
  "\u2581mer": 1995,
  "\u2581pr\u00e9vu": 1996,
  "\u2581\u043e\u0442\u0432\u0435\u0442": 1997,
  "\u2581Asie": 1998,
  "\u2581r\u00e9pondre": 1999,
  "\u2581\u0443\u0441\u043b\u043e\u0432\u0438\u044f": 2000,
  "\u2581analyse": 2001,
  "\u2581but": 2002,
  "\u25811990": 2003,
  "\u2581\u043f\u0440\u0430\u0432\u043e\u0441\u0443\u0434\u0438\u044f": 2004,
  "\u2581vraiment": 2005,
  "\u2581VIH": 2006,
  "\u2581nucl\u00e9aire": 2007,
  "\u2581\u0440\u0430\u0441": 2008,
  ".4": 2009,
  "\u043d\u044b": 2010,
  "\u2581int\u00e9r\u00eat": 2011,
  "\u2581trop": 2012,
  "\u2581\u0412\u0441\u0435\u043c\u0438\u0440\u043d\u043e\u0439": 2013,
  "\u2581\u043f\u0440\u0438\u043d\u0438\u043c\u0430\u0442\u044c": 2014,
  "ive": 2015,
  "\u2581agents": 2016,
  "K": 2017,
  "\u2581\u043c\u0435\u0436\u0434\u0443\u043d\u0430\u0440\u043e\u0434\u043d\u044b\u043c": 2018,
  "\u2581\u0434\u0440\u0443\u0433\u0438\u043c": 2019,
  "\u2581\u043f\u0440\u043e\u0433\u0440\u0430\u043c\u043c\u0430\u043c": 2020,
  "\u2581pass\u00e9": 2021,
  "\u2581\u043f\u043e\u0441\u043b\u0435\u0434\u0441\u0442\u0432\u0438\u0439": 2022,
  "00": 2023,
  "\u2581derni\u00e8re": 2024,
  "\u2581Charte": 2025,
  "\u2581Constitution": 2026,
  "\u2581contribution": 2027,
  "\u2581York": 2028,
  "\u2581soulign\u00e9": 2029,
  "V": 2030,
  "\u2581\u043e\u0440\u0433\u0430\u043d\u044b": 2031,
  "\u2581\u0441\u0443\u0434": 2032,
  "\u258151": 2033,
  "\u2581\u0434\u0440\u0443\u0433\u043e\u0439": 2034,
  "\u2581comptes": 2035,
  "\u2581cinquante": 2036,
  "\u0431\u0435\u0440": 2037,
  "\u2581Ministre": 2038,
  "\u2581conclusions": 2039,
  "\u2581\u00e9tablissement": 2040,
  "\u0433\u043e\u0432\u043e\u0440\u0438\u0442": 2041,
  "\u2581\u0441\u043a\u0430\u0437\u0430\u043b": 2042,
  "\u2581Que": 2043,
  "\u2581\u043e\u0431\u0437\u043e\u0440\u0430": 2044,
  "\u258146": 2045,
  "\u2581*": 2046,
  "\u2581chez": 2047,
  "\u2581\u0431": 2048,
  "\u2581faisant": 2049,
  "\u2581\u0440\u043e\u043b\u0438": 2050,
  "\u2581mal": 2051,
  "\u2581\u00e9tablissements": 2052,
  "\u2581\u0445\u0430\u0440\u0430\u043a\u0442\u0435\u0440\u0430": 2053,
  "\u2581bureau": 2054,
  "\u2581financiers": 2055,
  "\u2581\u0441\u043e\u0434\u0435\u0439\u0441\u0442\u0432\u043e\u0432\u0430\u0442\u044c": 2056,
  "\u2581demandes": 2057,
  "\u2581transition": 2058,
  "\u2581\u00e9tudes": 2059,
  "\u2581\u0435\u0439": 2060,
  "\u2581Re": 2061,
  "\u2581force": 2062,
  "\u2581\u0441\u0435\u0433\u043e\u0434\u043d\u044f": 2063,
  "\u2581parmi": 2064,
  "\u2581\u0432\u0437\u043d\u043e\u0441\u043e\u0432": 2065,
  "\u044e\u0441\u044c": 2066,
  "\u258143": 2067,
  "\u2581International": 2068,
  "\u2581\u043e\u043f\u0440\u0435\u0434\u0435\u043b\u0435\u043d\u0438\u044f": 2069,
  "\u2581\u043f\u0440\u0438\u043d\u044f\u043b": 2070,
  "\u2581\u043f\u0440\u0430\u043a\u0442\u0438\u043a\u0438": 2071,
  "ro": 2072,
  "\u2581lorsqu": 2073,
  "\u2581\u0441\u043e\u044e\u0437\u0430": 2074,
  "\u0436\u0435": 2075,
  "\u2581termes": 2076,
  "\u2581\u0421\u043e\u0446\u0438\u0430\u043b\u044c\u043d": 2077,
  "\u2581\u043e\u0431\u0437\u043e\u0440": 2078,
  "\u2581convient": 2079,
  "\u2581\u0438\u043d\u043e\u0441\u0442\u0440\u0430\u043d\u043d\u044b\u0445": 2080,
  "\u2581Trait\u00e9": 2081,
  "\u2581li\u00e9es": 2082,
  "\u2581\u043f\u044f\u0442\u044c\u0434\u0435\u0441\u044f\u0442": 2083,
  "\u2581\u043f\u043e\u0440": 2084,
  "\u2581Isra\u00ebl": 2085,
  "\u2581Se": 2086,
  "k": 2087,
  "\u2581Ou": 2088,
  "\u2581\u0440\u0430\u0432\u0435\u043d\u0441\u0442\u0432\u0430": 2089,
  "\u2581\u043e\u043a\u0430\u0437\u044b\u0432\u0430\u0442\u044c": 2090,
  "\u2581\u043f\u0440\u0430\u0432\u0438\u0442\u0435\u043b\u044c\u0441\u0442\u0432\u043e\u043c": 2091,
  "\u2581\u0442\u043e\u043c\u0443": 2092,
  "\u2581permettant": 2093,
  "\u2581\u041c\u0435\u0436\u0434\u0443\u043d\u0430\u0440\u043e\u0434\u043d\u043e\u0439": 2094,
  "\u2581\u0432\u043c\u0435\u0441\u0442\u0435": 2095,
  "\u2581mes": 2096,
  "\u0435\u043d\u044c": 2097,
  "\u2581Alors": 2098,
  "at": 2099,
  "\u2581\u0441\u0435\u043c\u044c\u0438": 2100,
  "\u2581sources": 2101,
  "\u2581\u043c\u0435\u0436\u0434\u0443\u043d\u0430\u0440\u043e\u0434\u043d\u043e\u043c": 2102,
  "\u2581\u0421\u0442\u0430\u0442\u044c\u044f": 2103,
  "\u0442\u044c\u0441\u044f": 2104,
  "\u2581efficacit\u00e9": 2105,
  "\u2581\u00e9limination": 2106,
  "\u2581\u0441\u043e\u0446\u0438\u0430\u043b\u044c\u043d\u044b\u0445": 2107,
  "\u2581transports": 2108,
  "\u2581Toutefois": 2109,
  "\u2581lettre": 2110,
  "ici": 2111,
  "\u2581\u0442\u044b\u0441\u044f\u0447\u0435\u043b\u0435\u0442\u0438\u044f": 2112,
  "\u2581\u0442\u0435\u0445\u043d\u043e\u043b\u043e\u0433\u0438\u0439": 2113,
  "\u2581Ne": 2114,
  "\u2581\u0438\u043d\u0444\u043e\u0440\u043c\u0430\u0446\u0438\u0435\u0439": 2115,
  "\u2581\u043f\u0440\u0435\u0434": 2116,
  "\u2581charge": 2117,
  "\u2581\u0428\u0442\u0430\u0442\u043e\u0432": 2118,
  "\u2581difficult\u00e9s": 2119,
  "\u2581\u043c\u0435\u0440\u043e\u043f\u0440\u0438\u044f\u0442\u0438\u044f": 2120,
  ".7": 2121,
  "\u2581All": 2122,
  "\u2581aujourd": 2123,
  "\u2581d\u00e9": 2124,
  "\u2581paragraphes": 2125,
  "\u2581\u043d\u043e\u0432\u044b\u0435": 2126,
  "\u2581locales": 2127,
  "\u2581recommandation": 2128,
  "\u2581\u043e\u0440\u0433\u0430\u043d\u0430\u043c\u0438": 2129,
  "eur": 2130,
  "\u2581d\u00e9clarations": 2131,
  "\u043b\u044c": 2132,
  "\u2581secteurs": 2133,
  "\u2581\u0440\u0430\u0437\u043e\u0440\u0443\u0436\u0435\u043d\u0438\u044f": 2134,
  "\u2581\u044d\u043a\u043e\u043d\u043e\u043c\u0438\u0447\u0435\u0441\u043a\u043e\u0439": 2135,
  "\u2581\u0447\u0435\u0433\u043e": 2136,
  "\u2581\u043c\u0430\u0442\u0435\u0440\u0438\u0430\u043b\u043e\u0432": 2137,
  "ad": 2138,
  "\u2581humaines": 2139,
  "\u2581\u00eates": 2140,
  "\u2581\u043f\u0443\u0442\u0438": 2141,
  "Uni": 2142,
  "\u2581\u0434\u0435\u043b\u043e": 2143,
  "\u2581\u043a\u043b\u0438\u043c\u0430\u0442\u0430": 2144,
  "\u2581Pas": 2145,
  "w": 2146,
  "\u2581satisfaction": 2147,
  "\u2581faites": 2148,
  "man": 2149,
  "\u2581intitul\u00e9": 2150,
  "\u2581intention": 2151,
  "\u2581\u0432\u0441\u0435\u0433\u0434\u0430": 2152,
  "Rev": 2153,
  "\u043d\u044f": 2154,
  "\u2581d\u00e9terminer": 2155,
  "\u2581\u0441\u0435\u043a\u0440\u0435\u0442\u0430\u0440\u044c": 2156,
  "\u2581\u0434\u043e\u043b\u0436\u043d\u043e\u0441\u0442\u0435\u0439": 2157,
  "\u2581\u0443\u0440\u043e\u0432\u0435\u043d\u044c": 2158,
  "\u2581\u0438\u043c\u0435\u043d\u043d\u043e": 2159,
  "\u2581\u0441\u0443\u0434\u0430": 2160,
  "\u2581v\u00e9hicules": 2161,
  "appui": 2162,
  "ul": 2163,
  "\u2581\u041e\u0440\u0433\u0430\u043d\u0438\u0437\u0430\u0446\u0438\u0435\u0439": 2164,
  "\u2581\u043e\u0434\u043d\u0438\u043c": 2165,
  "\u2581\u0441\u0438\u0441\u0442\u0435\u043c\u0435": 2166,
  "\u2581enseignement": 2167,
  "\u2581derni\u00e8res": 2168,
  "\u2581\u0432\u043d\u0438\u043c\u0430\u043d\u0438\u044f": 2169,
  "\u2581r\u00e9ponse": 2170,
  "\u2581populations": 2171,
  "exercice": 2172,
  "4": 2173,
  "\u258152": 2174,
  "\u2581seul": 2175,
  "\u2581r\u00e9f\u00e9rence": 2176,
  "\u2581\u00e9missions": 2177,
  "\u2581nombreuses": 2178,
  "\u2581\u041d\u044c\u044e": 2179,
  "autre": 2180,
  "\u2581six": 2181,
  "\u2581\u0442\u0430\u043a\u043e\u0435": 2182,
  "\u2581\u043f\u0440\u0435": 2183,
  "\u2581\u043f\u0435\u0440\u0435\u0433\u043e\u0432\u043e\u0440\u043e\u0432": 2184,
  "\u2581pertinentes": 2185,
  "\u25810": 2186,
  "\u2581Directeur": 2187,
  "\u2581condition": 2188,
  "\u2581\u043f\u0440\u0438\u043d\u0446\u0438\u043f\u044b": 2189,
  "\u2581\u044d\u043a\u043e\u043d\u043e\u043c\u0438\u0447\u0435\u0441\u043a\u0438\u0445": 2190,
  "\u0434\u0435\u0440": 2191,
  "\u2581communications": 2192,
  "O": 2193,
  "\u2581\u043f\u0440\u043e\u0444\u0435\u0441\u0441\u0438\u043e\u043d\u0430\u043b\u044c\u043d\u043e": 2194,
  "\u2581donne": 2195,
  "\u2581approche": 2196,
  "\u2581ET": 2197,
  "\u042f": 2198,
  "\u2581existe": 2199,
  "\u2581\u043f\u043e\u0441\u043b\u0435\u0434\u0441\u0442\u0432\u0438\u044f": 2200,
  "\u2581enqu\u00eate": 2201,
  "\u2581\u043a\u043e\u043c\u0438\u0441\u0441\u0438\u0438": 2202,
  "\u0443\u0442": 2203,
  "\u2581\u041c\u0438\u0441\u0441\u0438\u0438": 2204,
  "\u2581Mill\u00e9naire": 2205,
  "\u2581\u0441\u043e\u0431\u043b\u044e\u0434\u0435\u043d\u0438\u044f": 2206,
  "elles": 2207,
  "\u2581\u0441\u0435\u0431\u0435": 2208,
  "able": 2209,
  "\u2581propre": 2210,
  "\u2581locaux": 2211,
  "\u2581\u043f\u0443\u043d\u043a\u0442\u0443": 2212,
  "\u00e9e": 2213,
  "\u2581Oh": 2214,
  "\u2581\u043f\u043e\u043b\u0443\u0447\u0435\u043d\u0438\u044f": 2215,
  "v": 2216,
  "\u2581\u043f\u043e\u043b\u043e\u0436\u0435\u043d\u0438\u0438": 2217,
  "ity": 2218,
  "\u2581\u0437\u0430\u044f\u0432\u043b\u0435\u043d\u0438\u0435": 2219,
  "\u2581\u043f\u0440\u0430\u0432\u043e\u0432\u043e\u0439": 2220,
  "\u2581humains": 2221,
  "\u2581\u0434\u0435\u043b\u0435\u0433\u0430\u0446\u0438\u0438": 2222,
  "\u2581suivantes": 2223,
  "\u2581sociales": 2224,
  "\u2581Chine": 2225,
  "\u2581large": 2226,
  "\u2581not\u00e9": 2227,
  "\u00e9ducation": 2228,
  "\u2581obtenir": 2229,
  "\u2581\u044d\u0444\u0444\u0435\u043a\u0442\u0438\u0432\u043d\u043e\u0433\u043e": 2230,
  "se": 2231,
  "\u043d\u043e\u0441\u0442\u044c": 2232,
  "\u2581\u0444\u0430\u043a\u0442": 2233,
  "\u2581activit\u00e9": 2234,
  "\u2581\u0433\u043e\u0441\u0443\u0434\u0430\u0440\u0441\u0442\u0432\u0435\u043d\u043d\u044b\u0445": 2235,
  "\u2581contribuer": 2236,
  "\u258155": 2237,
  "\u0435\u0440": 2238,
  "\u2581aller": 2239,
  "\u2581centrale": 2240,
  "\u2581preuve": 2241,
  "\u2581\u043b\u044e\u0434\u044c\u043c\u0438": 2242,
  "\u0441\u0442": 2243,
  "\u0441\u0442\u044c": 2244,
  "\u2581\u043f\u0440\u0435\u0434\u0441\u0442\u0430\u0432\u0438\u0442\u0435\u043b\u0438": 2245,
  "\u2581\u0437\u0430\u0434\u0430\u0447": 2246,
  "\u2581\u0423\u043f\u0440\u0430\u0432\u043b\u0435\u043d\u0438\u0435": 2247,
  "\u2581porte": 2248,
  "\u0448": 2249,
  "\u2581militaire": 2250,
  "\u041b": 2251,
  "\u2581Mon": 2252,
  "\u2581\u043f\u0440\u043e\u0433\u0440\u0435\u0441\u0441\u0430": 2253,
  "\u2581\u043f\u043e\u043b\u0443\u0447\u0438\u0442\u044c": 2254,
  "\u2581recommand\u00e9": 2255,
  "\u258153": 2256,
  "\u2581\u043f\u043e\u043b\u043d\u043e\u0439": 2257,
  "20": 2258,
  "\u2581\u0441\u0440\u043e\u043a": 2259,
  "\u2581\u043e\u0431\u044a\u0435\u043c\u0430": 2260,
  "\u2581augmentation": 2261,
  "\u2581\u0432\u0430\u0436\u043d\u043e\u0435": 2262,
  "\u2581\u043d\u0430\u0441\u0442\u043e\u044f\u0449\u0435\u0433\u043e": 2263,
  "\u0442\u0435\u0440": 2264,
  "\u2581seraient": 2265,
  "\u258177": 2266,
  "\u2581\u0411\u044b\u043b\u043e": 2267,
  "\u2581\u0441\u043e\u0434\u0435\u0440\u0436\u0438\u0442\u0441\u044f": 2268,
  "\u2581parler": 2269,
  "\u2581Sommet": 2270,
  "\u0441\u0442\u0432\u043e": 2271,
  "\u2581adopt\u00e9e": 2272,
  "\u0430\u043b": 2273,
  "\u2581peine": 2274,
  "\u041d": 2275,
  "\u2581\u043e\u0441\u043d\u043e\u0432\u0430\u043d\u0438\u0438": 2276,
  "\u2581voie": 2277,
  "\u043a\u043e\u0439": 2278,
  "\u2581march\u00e9s": 2279,
  "\u0430\u043b\u044c": 2280,
  "\u043c\u043e": 2281,
  "\u2581d\u00e9but": 2282,
  "\u258156": 2283,
  "\u2581\u043e\u0440\u0433\u0430\u043d\u0438\u0437\u0430\u0446\u0438\u044f": 2284,
  "\u2581\u043f\u0440\u0435\u0434\u043e\u0441\u0442\u0430\u0432\u043b\u0435\u043d\u0438\u044f": 2285,
  "\u2581arabe": 2286,
  "\u2581\u043e\u0445\u0440\u0430\u043d\u044b": 2287,
  "\u2581\u0447\u043b\u0435\u043d\u044b": 2288,
  "\u2581\u0444\u043e\u0440\u043c": 2289,
  "\u2581\u0441\u0432\u043e\u0431\u043e\u0434\u044b": 2290,
  "\u2581dur\u00e9e": 2291,
  "\u2581\u0441\u0438\u0441\u0442\u0435\u043c\u0430": 2292,
  "\u2581\u043c\u0438\u043d": 2293,
  "\u2581prix": 2294,
  "\u2581\u0448": 2295,
  "\u2581\u043f\u0440\u0438\u043d\u044f\u0442\u0438\u0435": 2296,
  "\u043c\u0435\u0440": 2297,
  "\u2581\u043f\u0440\u0438\u0432\u0435\u0442\u0441\u0442\u0432\u0443\u0435\u0442": 2298,
  "\u2581\u0441\u043e\u043a\u0440\u0430\u0449\u0435\u043d\u0438\u044f": 2299,
  "\u2581terrain": 2300,
  "\u2581auteurs": 2301,
  "\u2581\u0443\u0447\u0435\u0442\u0430": 2302,
  "\u2581co\u00fbts": 2303,
  "eau": 2304,
  "\u2581\u0412\u043e\u0442": 2305,
  "\u2581agissant": 2306,
  "\u2581Merci": 2307,
  "\u2581\u0425\u043e\u0440\u043e\u0448\u043e": 2308,
  "\u0432\u0430\u0439": 2309,
  "\u2581Cela": 2310,
  "\u2581r\u00e9gionale": 2311,
  "ie": 2312,
  "\u2581\u043d\u0435\u043e\u0431\u0445\u043e\u0434\u0438\u043c\u044b\u0435": 2313,
  "\u2581\u0431\u043e": 2314,
  "\u2581\u043a\u043e\u043d\u0444\u043b\u0438\u043a\u0442\u043e\u0432": 2315,
  "\u2581\u043f\u0443\u043d\u043a\u0442\u043e\u043c": 2316,
  "\u2581demander": 2317,
  "\u2581administratives": 2318,
  "\u2581membre": 2319,
  "\u2581adopter": 2320,
  "\u25811991": 2321,
  "\u2581\u0440\u0430\u0441\u0448\u0438\u0440\u0435\u043d\u0438\u044f": 2322,
  "\u0432\u0438": 2323,
  "\u2581men\u00e9es": 2324,
  "\u2581trait\u00e9s": 2325,
  "\u2581\u043b\u0438\u043d\u0438\u0438": 2326,
  "\u2581disponibles": 2327,
  "\u2581\u041d": 2328,
  "\u2581\u043f\u043e\u0434\u0445\u043e\u0434\u0430": 2329,
  "\u0441\u044c": 2330,
  "\u2581caract\u00e8re": 2331,
  "\u2581fais": 2332,
  "\u2581s\u00fbr": 2333,
  "\u2581\u0412\u0435\u0440\u0445\u043e\u0432\u043d\u043e\u0433\u043e": 2334,
  "\u043b\u0435": 2335,
  "\u2581\u0440\u0435\u0433\u0438\u043e\u043d\u0430": 2336,
  "\u2581financier": 2337,
  "\u2581\u0432\u044b\u0440\u0430\u0436\u0430\u0435\u0442": 2338,
  "\u2581donateurs": 2339,
  "\u2581p\u00e9nal": 2340,
  "\u2581importante": 2341,
  "je": 2342,
  "\u043e\u0433\u043b\u0430\u0441\u043d\u043e": 2343,
  "\u2581trafic": 2344,
  "\u2581communaut\u00e9s": 2345,
  "0": 2346,
  "\u0423": 2347,
  "\u2581\u043e\u0431\u0449\u0438\u043d": 2348,
  "\u2581\u043c\u043e\u0439": 2349,
  "\u0440\u0430\u0441": 2350,
  "\u2581\u0443\u0447\u0440\u0435\u0436\u0434\u0435\u043d\u0438\u044f\u043c\u0438": 2351,
  "\u2581\u043e\u0431\u044a\u0435\u043c": 2352,
  "\u2581Service": 2353,
  "\u2581\u043d\u0438\u0447\u0435\u0433\u043e": 2354,
  "\u2581co\u00fbt": 2355,
  "\u2581\u0442\u043e\u0439": 2356,
  "\u0438\u0441": 2357,
  "\u2581\u043c\u0435\u0436\u0434\u0443\u043d\u0430\u0440\u043e\u0434\u043d\u044b\u0435": 2358,
  "\u2581\u0438\u0441\u0441\u043b\u0435\u0434\u043e\u0432\u0430\u043d\u0438\u0439": 2359,
  "\u2581\u0443\u0433\u043e\u043b\u043e\u0432\u043d\u043e\u0433\u043e": 2360,
  "\u2581\u043a\u043e\u0442\u043e\u0440\u044b\u043c\u0438": 2361,
  "\u2581\u043d\u0438\u043a\u043e\u0433\u0434\u0430": 2362,
  "\u043a\u043e\u0432": 2363,
  "\u2581\u043f\u0440\u0430\u0432\u0438\u0442\u0435\u043b\u044c\u0441\u0442\u0432": 2364,
  "\u2581\u0443\u043a\u0440\u0435\u043f\u043b\u0435\u043d\u0438\u044e": 2365,
  "\u2581\u043f\u044b\u0442\u043e\u043a": 2366,
  "\u2581\u043f\u043e\u0434\u0445\u043e\u0434": 2367,
  "\u2581pr\u00e9venir": 2368,
  "\u2581\u043e\u0441\u0443\u0449\u0435\u0441\u0442\u0432\u043b\u044f\u0442\u044c": 2369,
  "\u2581conf\u00e9rences": 2370,
  "\u2581\u0437\u0430\u0441\u0435\u0434\u0430\u043d\u0438\u0435": 2371,
  "\u2581territoires": 2372,
  "\u2581dois": 2373,
  "\u2581raciale": 2374,
  "\u2581\u043f\u043e\u0442\u0440\u0435\u0431\u043d\u043e\u0441\u0442\u0438": 2375,
  "\u2212": 2376,
  "\u2581\u00e9nergie": 2377,
  "me": 2378,
  "\u2581crise": 2379,
  "\u2581\u043e\u0446\u0435\u043d\u043a\u0435": 2380,
  "\u0442\u0443": 2381,
  "\u2581occasion": 2382,
  "\u2581f\u00e9licite": 2383,
  "\u2581chapitre": 2384,
  "\u2581s\u00e9rie": 2385,
  "\u2581constitue": 2386,
  "\u2581\u0410\u0437\u0438\u0438": 2387,
  "\u2581\u043d\u0435\u043c": 2388,
  "\u2581\u043f\u0440\u0438\u043d\u0438\u043c\u0430\u0435\u0442": 2389,
  "\u2581\u00e9laborer": 2390,
  "\u2581\u043f\u0440\u043e\u0442\u043e\u043a\u043e\u043b\u0430": 2391,
  "\u0414": 2392,
  "\u2581Conform\u00e9ment": 2393,
  "\u2581\u041f\u0440\u043e\u0435\u043a\u0442": 2394,
  "\u2581section": 2395,
  "\u0439\u0442\u0435": 2396,
  "\u2581culture": 2397,
  "\u2581\u0440\u0430\u0441\u043f\u0440\u043e\u0441\u0442\u0440\u0430\u043d\u0435\u043d\u0438\u044f": 2398,
  "\u2581violation": 2399,
  "\u2581\u043f\u043e\u0441\u043b\u0435\u0434\u043d\u0438\u0435": 2400,
  "\u0440\u0435": 2401,
  "\u2581\u041a\u043e\u0433\u0434\u0430": 2402,
  "\u2581\u0432\u0430\u0436\u043d\u043e\u0441\u0442\u044c": 2403,
  "U": 2404,
  "\u2581lesquelles": 2405,
  "\u2581publiques": 2406,
  "\u2581pr\u00e8s": 2407,
  "\u2581\u0434\u0430\u043b\u0435\u0435": 2408,
  "\u0424": 2409,
  "\u2581veut": 2410,
  "\u2581\u043c\u0435\u0436\u0434\u0443\u043d\u0430\u0440\u043e\u0434\u043d\u044b\u043c\u0438": 2411,
  "\u2581\u0433\u0440\u0430\u0436\u0434\u0430\u043d": 2412,
  "\u2581\u0437\u0430\u043a\u043e\u043d\u0430": 2413,
  "ia": 2414,
  "\u2581\u0441\u043e\u0434\u0435\u0440\u0436\u0430\u043d\u0438\u044f": 2415,
  "\u2581adress\u00e9e": 2416,
  "\u2581\u043e\u0431\u0435\u0441\u043f\u0435\u0447\u0438\u0432\u0430\u0442\u044c": 2417,
  "\u2581aura": 2418,
  "\u2581d\u00e9clar\u00e9": 2419,
  "\u2581adopt\u00e9es": 2420,
  "\u2581\u0441\u0442\u0430\u0442\u044c\u0435\u0439": 2421,
  "\u2581\u0437\u0430\u0441\u0435\u0434\u0430\u043d\u0438\u044f": 2422,
  "\u2581sp\u00e9ciales": 2423,
  "\u2581\u0433\u0440\u0430\u0436\u0434\u0430\u043d\u0441\u043a\u0438\u0445": 2424,
  "\u2581suivre": 2425,
  "\u2581\u041f\u041e": 2426,
  "\u043b\u0438\u0447": 2427,
  "\u0432\u0435\u0442": 2428,
  "\u2581iii": 2429,
  "\u2581auteur": 2430,
  "\u2581\u043c\u0435\u0436\u0434\u0443\u043d\u0430\u0440\u043e\u0434\u043d\u043e\u0435": 2431,
  "ve": 2432,
  "\u258157": 2433,
  "\u0417": 2434,
  "\u2581strat\u00e9gique": 2435,
  "\u2581\u0441\u043f\u043e\u0441\u043e\u0431\u0441\u0442\u0432\u043e\u0432\u0430\u0442\u044c": 2436,
  "\u2581co": 2437,
  "\u2581\u043f\u0440\u0435\u0441\u0442\u0443\u043f\u043b\u0435\u043d\u0438\u044f": 2438,
  "W": 2439,
  "\u2581cons\u00e9quences": 2440,
  "\u2581transfert": 2441,
  "\u2581\u0432\u0435\u0441\u044c\u043c\u0430": 2442,
  "\u2581\u043a\u0430\u0447\u0435\u0441\u0442\u0432\u0430": 2443,
  "\u2581propres": 2444,
  "SR": 2445,
  "\u043d\u0438\u044f": 2446,
  "\u2581\u0441\u043e\u043e\u0431\u0449\u0435\u043d\u0438\u044f": 2447,
  "x": 2448,
  "\u2581\u0421\u043e\u0432\u0435\u0442\u043e\u043c": 2449,
  "\u2581vol": 2450,
  "\u2581\u043f\u0443\u043d\u043a\u0442\u044b": 2451,
  "\u2581\u0434\u043e\u043b\u0436\u043d\u043e\u0441\u0442\u043d\u044b": 2452,
  "\u2581chef": 2453,
  "\u2581apporter": 2454,
  "\u2581\u043f\u043e\u043a\u0430\u0437\u0430\u0442\u0435\u043b\u0435\u0439": 2455,
  "\u2581possibilit\u00e9s": 2456,
  "\u2581\u0442\u0435\u0445\u043d\u0438\u0447\u0435\u0441\u043a\u043e\u0439": 2457,
  "\u2581\u043c\u0430\u043d\u0434\u0430\u0442\u0430": 2458,
  "\u2581\u043c\u043e\u0433": 2459,
  "\u2581\u043b\u0443\u0447\u0448\u0435": 2460,
  "\u2581500": 2461,
  "ance": 2462,
  "\u2581\u0430\u043d\u0430\u043b\u0438\u0437\u0430": 2463,
  "\u2581\u043f\u043e\u0442\u043e\u043c\u0443": 2464,
  "\u2581\u043c\u0438\u0441\u0441\u0438\u0438": 2465,
  "\u2581Selon": 2466,
  "\u2581\u0440\u043e\u0441\u0442\u0430": 2467,
  "\u2581\u0441\u043e\u0441\u0442\u0430\u0432\u0430": 2468,
  "\u00e9galit\u00e9": 2469,
  "\u2581\u0420\u0435\u0441\u043f\u0443\u0431\u043b\u0438\u043a\u0435": 2470,
  "\u00e9s": 2471,
  "\u258154": 2472,
  "\u2581\u043e\u0442\u043c\u0435\u0442\u0438\u043b": 2473,
  "\u2581\u0442\u0435\u043f\u0435\u0440\u044c": 2474,
  "ence": 2475,
  "Union": 2476,
  "\u2581\u0434\u0432\u0443\u0445\u0433\u043e\u0434\u0438\u0447\u043d\u044b\u0439": 2477,
  "\u0441\u0438": 2478,
  "\u0448\u0435": 2479,
  "\u2581\u043e\u043a\u0430\u0437\u0430\u043d\u0438\u044e": 2480,
  "\u2581\u0444\u0443\u043d\u043a\u0446\u0438\u0438": 2481,
  "\u043d\u043e\u0441\u0442\u0438": 2482,
  "\u2581200": 2483,
  "\u0442\u044b": 2484,
  "\u2581\u043f\u0440\u043e\u0433\u0440\u0430\u043c\u043c\u0430": 2485,
  "\u258158": 2486,
  "\u2581graves": 2487,
  "\u2581tableau": 2488,
  "\u2581re\u00e7u": 2489,
  "10": 2490,
  "\u0451\u043c": 2491,
  "ers": 2492,
  "\u2581\u0438\u043d\u0438\u0446\u0438\u0430\u0442\u0438\u0432\u044b": 2493,
  "\u2581\u0441\u043e\u0437\u0434\u0430\u043d\u0438\u044e": 2494,
  "\u2581VI": 2495,
  "am": 2496,
  "\u2581position": 2497,
  "\u2581\u0442\u0430": 2498,
  "\u2581comprend": 2499,
  "\u0438\u043d": 2500,
  "\u2581approuv\u00e9": 2501,
  "\u2581devait": 2502,
  "\u2581estime": 2503,
  "\u2581\u043c\u043e\u043c\u0435\u043d\u0442": 2504,
  "\u2581\u00e9conomie": 2505,
  "\u2581direction": 2506,
  "\u2581\u043f\u0440\u043e\u0432\u0435\u0434\u0435\u043d\u0438\u0438": 2507,
  "\u042d": 2508,
  "\u2581propos": 2509,
  "\u2581\u0441\u0435\u043a\u0440\u0435\u0442\u0430\u0440\u0438\u0430\u0442": 2510,
  "\u2581africaine": 2511,
  "\u2581\u0437\u0430\u043a\u043e\u043d": 2512,
  "\u2581\u0440\u0430\u0431\u043e\u0447\u0438\u0445": 2513,
  "\u2581Nord": 2514,
  "\u2581directement": 2515,
  "os": 2516,
  "\u2581\u043d\u0430\u0440\u0443\u0448\u0435\u043d\u0438\u044f": 2517,
  "\u2581\u043e\u043a\u0430\u0437\u0430\u043d\u0438\u0435": 2518,
  "\u2581\u043f\u0440\u043e\u0433\u0440\u0435\u0441\u0441": 2519,
  "\u2581confiance": 2520,
  "\u2581\u0421\u043f\u0430\u0441\u0438\u0431\u043e": 2521,
  "\u2581\u0432\u044b\u0431\u0440\u043e\u0441\u043e\u0432": 2522,
  "Afrique": 2523,
  "\u2581grandes": 2524,
  "\u2581Canada": 2525,
  "\u2581\u043a\u043e\u043d\u043a\u0440\u0435\u0442\u043d\u044b\u0435": 2526,
  "\u043f\u0440\u0430\u0432": 2527,
  "\u2581urgence": 2528,
  "\u2581gens": 2529,
  "\u2581\u043d\u0435\u043f\u043e\u0441\u0440\u0435\u0434\u0441\u0442\u0432\u0435\u043d\u043d\u043e": 2530,
  "\u2581pouvoirs": 2531,
  "\u0440\u0443": 2532,
  "\u2581dat\u00e9e": 2533,
  "ine": 2534,
  "\u2581traitements": 2535,
  "\u2581\u0434\u0435\u043b\u0430\u0442\u044c": 2536,
  "\u2581Mr": 2537,
  "\u2581site": 2538,
  "\u2581fondamentaux": 2539,
  "\u2581\u0415\u0432\u0440\u043e\u043f\u0435\u0439\u0441\u043a\u043e\u0433\u043e": 2540,
  "\u2581li\u00e9s": 2541,
  "na": 2542,
  "\u043f\u0443\u043d\u043a\u0442": 2543,
  "\u2581are": 2544,
  "\u2581\u0423\u043f\u0440\u0430\u0432\u043b\u0435\u043d\u0438\u044f": 2545,
  "\u2581Accord": 2546,
  "\u00e9valuation": 2547,
  "\u2581\u043c\u0438\u043d\u0438\u0441\u0442\u0440\u043e\u0432": 2548,
  "\u2581\u043f\u0440\u0438\u043b\u043e\u0436\u0435\u043d\u0438\u0438": 2549,
  "6": 2550,
  "ion": 2551,
  "\u2581seule": 2552,
  "administration": 2553,
  "\u2581\u043a\u043e\u043d\u0442\u0440\u043e\u043b\u044c": 2554,
  "\u2581\u0434": 2555,
  "\u2581succ\u00e8s": 2556,
  "\u2581\u00e9trang\u00e8res": 2557,
  "\u2581\u043c\u0438\u0440": 2558,
  "\u2581vote": 2559,
  "\u2581r\u00e9": 2560,
  "\u2581figurant": 2561,
  "\u2581\u0421\u043e": 2562,
  "\u2581\u043f\u043e\u0434\u0433\u043e\u0442\u043e\u0432\u043a\u0443": 2563,
  "\u2581\u0437\u0430\u043c\u0435\u0447\u0430\u043d\u0438\u044f": 2564,
  "\u2581\u043e\u0431\u0440\u0430\u0449\u0435\u043d\u0438\u044f": 2565,
  "\u2581\u0435\u0451": 2566,
  "\u2581\u043f\u0440\u0435\u0436\u0434\u0435": 2567,
  "\u2581mati\u00e8res": 2568,
  "\u2581\u0432\u043e\u043e\u0440\u0443\u0436\u0435\u043d\u043d\u044b\u0445": 2569,
  "\u2581pr\u00e9vues": 2570,
  "\u2581\u0441\u043e\u043e\u0431\u0449\u0435\u0441\u0442\u0432\u043e": 2571,
  "\u2581\u043f\u0440\u0438\u043d\u044f\u0442\u044b\u0445": 2572,
  "\u2581\u0438\u0441\u0442\u043e\u0447\u043d\u0438\u043a\u043e\u0432": 2573,
  "\u2581\u0434\u043e\u043a\u0443\u043c\u0435\u043d\u0442\u044b": 2574,
  "\u25812005,": 2575,
  "\u2581\u043c\u043d\u0435\u043d\u0438\u044e": 2576,
  "\u2581humanitaires": 2577,
  "\u2581\u0432\u0441\u0435\u043c\u0438": 2578,
  "50": 2579,
  "\u2581(19": 2580,
  "\u258170": 2581,
  "\u2581environ": 2582,
  "\u043d\u0438\u0439": 2583,
  "\u2581\u0410\u0441\u0441\u0430\u043c\u0431\u043b\u0435\u0435\u0439": 2584,
  "\u2581\u0443\u0442\u0432\u0435\u0440\u0436\u0434\u0435\u043d\u0438\u044f": 2585,
  "\u2581\u041f\u043e\u0447\u0435\u043c\u0443": 2586,
  "\u044d\u0440": 2587,
  "\u2581\u0438\u043d\u0444\u043e\u0440\u043c\u0430\u0446\u0438\u043e\u043d\u043d\u043e": 2588,
  "\u2581\u0440\u0435\u0437\u043e\u043b\u044e\u0446\u0438\u044e": 2589,
  "\u2581Add": 2590,
  "\u2581\u0441\u043e\u0432\u0435\u0449\u0430\u043d\u0438\u0435": 2591,
  "\u2581\u0447\u043b\u0435\u043d\u0430\u043c\u0438": 2592,
  "\u043d\u0438\u0435": 2593,
  "\u2581responsabilit\u00e9s": 2594,
  "\u2581Note": 2595,
  "\u2581travailleurs": 2596,
  "\u2581\u0432\u044b\u0441\u043e\u043a\u043e\u0433\u043e": 2597,
  "\u2581\u0441\u0442\u0440\u0430\u0442\u0435\u0433\u0438\u0439": 2598,
  "\u2581int\u00e9gration": 2599,
  "\u2581\u043e\u0431\u0435\u0441\u043f\u043e\u043a\u043e\u0435\u043d\u043d\u043e\u0441\u0442\u044c": 2600,
  "\u2581k": 2601,
  "\u2581\u042e\u041d\u041a\u0422\u0410\u0414": 2602,
  "\u2581indicateurs": 2603,
  "\u258165": 2604,
  "\u0430\u043b\u0438": 2605,
  "\u2581\u0412\u043c\u0435\u0441\u0442\u0435": 2606,
  "\u2581volont\u00e9": 2607,
  "\u00e9tais": 2608,
  "\u2581Iraq": 2609,
  "\u2581\u0441\u043e\u0437\u0434\u0430\u0442\u044c": 2610,
  "\u2581\u0441\u0438\u0441\u0442\u0435\u043c\u0443": 2611,
  "\u2581pr\u00e9voit": 2612,
  "\u2581Office": 2613,
  "\u2581frais": 2614,
  "\u2581\u0432\u044b\u0441\u0448\u0435\u043c": 2615,
  "\u043d\u0438\u0431\u0443\u0434\u044c": 2616,
  "\u2581\u041d\u0438": 2617,
  "\u2581from": 2618,
  "\u2581importe": 2619,
  "\u2581at": 2620,
  "\u2581\u043c\u0435\u0445\u0430\u043d\u0438\u0437\u043c\u0430": 2621,
  "\u2581pr\u00e9sentation": 2622,
  "\u2581(1": 2623,
  "\u2581\u042e\u041d\u0418\u0421\u0415\u0424": 2624,
  "\u2581\u0441\u043a\u0430\u0437\u0430\u0442\u044c": 2625,
  "\u2581priorit\u00e9s": 2626,
  "\u043b\u0441\u044f": 2627,
  "\u2581engagement": 2628,
  "\u2581organis\u00e9": 2629,
  "\u2581\u0441\u043e\u0432\u043c\u0435\u0441\u0442\u043d\u043e": 2630,
  "\u2581\u0442\u043e\u0440\u0433\u043e\u0432\u043b\u0435": 2631,
  "\u0447\u0438": 2632,
  "\u2581\u0437\u0430\u0449\u0438\u0442\u0443": 2633,
  "\u2581\u0440\u0430\u0441\u043f\u0440\u043e\u0441\u0442\u0440\u0430\u043d\u0435\u043d\u0438\u0435": 2634,
  "\u2581dispose": 2635,
  "\u2581Qui": 2636,
  "\u2581arm\u00e9s": 2637,
  "\u2581\u043a\u043e\u043c\u0438\u0441\u0441\u0430\u0440\u0430": 2638,
  "\u2581gaz": 2639,
  "\u0441\u0442\u0435\u0440": 2640,
  "\u2581Prie": 2641,
  "aux": 2642,
  "\u2581petit": 2643,
  "\u2581al": 2644,
  "\u2581\u043e\u0431\u0440\u0430\u0437\u043e\u0432\u0430\u043d\u0438\u0435": 2645,
  "\u0435\u043d\u0438\u0435": 2646,
  "\u2581sessions": 2647,
  "\u2581efficaces": 2648,
  "\u2581prend": 2649,
  "\u2581rapide": 2650,
  "\u2581DU": 2651,
  "\u2581local": 2652,
  "\u2581\u043f\u0440\u0438\u043c\u0435\u043d\u0435\u043d\u0438\u0435": 2653,
  "\u2581Bon": 2654,
  "\u2581Forum": 2655,
  "\u2581crit\u00e8res": 2656,
  "\u2581\u0417\u0430\u043a\u043e\u043d": 2657,
  "\u2581situations": 2658,
  "\u2581\u043f\u0440\u043e\u0432\u043e\u0434\u0438\u0442\u044c": 2659,
  "\u2581\u043c\u043d\u043e\u0433\u0438\u0435": 2660,
  "\u2581\u043c\u0435\u0441\u0442\u043d\u044b\u0445": 2661,
  "\u2581tribunaux": 2662,
  "\u2581respecter": 2663,
  "\u2581Depuis": 2664,
  "\u0435\u043b\u044c": 2665,
  "\u2581\u0430\u043d\u0430\u043b\u0438\u0437": 2666,
  "\u2581\u041f\u043e\u0434": 2667,
  "\u2581\u0443\u043f\u0440\u0430\u0432\u043b\u0435\u043d\u0438\u0435": 2668,
  "\u2581\u043d\u0430\u0434\u043e": 2669,
  "\u2581\u043a\u043e\u043d": 2670,
  "\u2581\u0438\u0441\u0441\u043b\u0435\u0434\u043e\u0432\u0430\u043d\u0438\u044f": 2671,
  "\u2581chefs": 2672,
  "\u2581\u043c\u0435\u0441\u0442\u0430": 2673,
  "\u041f": 2674,
  "\u2581\u041a\u043e\u043d\u0433\u043e": 2675,
  "\u2581\u043d\u0430\u0448\u0435\u0439": 2676,
  "\u0438\u0432": 2677,
  "\u2581\u0441\u043e\u0441\u0442\u0430\u0432\u043b\u044f\u0435\u0442": 2678,
  "\u2581jouer": 2679,
  "\u2581\u043f\u0440\u0435\u0441\u0442\u0443\u043f\u043b\u0435\u043d\u0438\u0439": 2680,
  "\u2581\u043d\u0430\u0447\u0430\u043b\u0430": 2681,
  "um": 2682,
  "ut": 2683,
  "\u2581\u0431\u043b\u0430\u0433\u043e\u0434\u0430\u0440\u044f": 2684,
  "\u2581Sur": 2685,
  "\u2581comp\u00e9tences": 2686,
  "\u043b\u0443\u0448\u0430": 2687,
  "\u2581acte": 2688,
  "\u258161": 2689,
  "\u2581rendu": 2690,
  "\u0433\u0438": 2691,
  "\u258162": 2692,
  "\u2581exp\u00e9rience": 2693,
  "\u2581priorit\u00e9": 2694,
  "\u2581puisse": 2695,
  "\u0445\u043e\u0434": 2696,
  "\u2581Rappelant": 2697,
  "\u2581\u044d\u043d\u0435\u0440\u0433\u0438\u0438": 2698,
  "\u2581r\u00e9seau": 2699,
  "\u2581\u043e\u0431\u0449\u0438\u0445": 2700,
  "\u2581\u0440\u0435\u0448\u0435\u043d\u0438\u0438": 2701,
  "\u2581tribunal": 2702,
  "\u2581accomplis": 2703,
  "\u2581\u0444\u043e\u043d\u0434\u0430": 2704,
  "\u2581particip\u00e9": 2705,
  "\u2581\u0420\u0435": 2706,
  "\u2581\u043f\u043e\u044d\u0442\u043e\u043c\u0443": 2707,
  "\u2581quant": 2708,
  "\u2581\u0441\u043f\u0435\u0446\u0438\u0430\u043b\u044c\u043d\u044b\u0445": 2709,
  "\u2581\u043a\u0430\u043a\u0438\u0435": 2710,
  "\u2581Quoi": 2711,
  "\u2581utiliser": 2712,
  "\u2581\u043c\u0435\u0436\u043f\u0440\u0430\u0432\u0438\u0442\u0435\u043b\u044c\u0441\u0442": 2713,
  "\u2581instamment": 2714,
  "\u2581\u0442\u0435\u043a\u0441\u0442": 2715,
  "\u2581\u0446\u0435\u043b\u044c": 2716,
  "\u2581www": 2717,
  "\u043d\u0438\u043a": 2718,
  "\u2581\u0441\u043b\u0435\u0434\u0443\u044e\u0449\u0438\u043c": 2719,
  "\u2581Y": 2720,
  "30": 2721,
  "ri": 2722,
  "\u2581int\u00e9r\u00eats": 2723,
  "\u2581France": 2724,
  "\u2581\u043e\u0434\u043d\u0430": 2725,
  "\u2581\u0442\u043e\u0436\u0435": 2726,
  "and": 2727,
  "\u2581permanente": 2728,
  "\u2581entit\u00e9s": 2729,
  "\u2581obligation": 2730,
  "\u2581\u0440\u0435\u0437\u043e\u043b\u044e\u0446\u0438\u0435\u0439": 2731,
  "\u258164": 2732,
  "\u2581centre": 2733,
  "\u2581\u0434\u043e\u043a\u043b\u0430\u0434\u0447\u0438\u043a": 2734,
  "\u2581\u041a\u043e\u043c\u0438\u0442\u0435\u0442\u043e\u043c": 2735,
  "\u2581lesquels": 2736,
  "\u2581\u043a\u0430\u0436\u0434\u043e\u0433\u043e": 2737,
  "\u2581Banque": 2738,
  "\u2581manque": 2739,
  "\u25812002,": 2740,
  "\u2581\u00e9trangers": 2741,
  "\u2581mener": 2742,
  "\u2581ECE": 2743,
  "\u2581\u043e\u0442\u043c\u0435\u0442\u0438\u0442\u044c": 2744,
  "\u2581lutter": 2745,
  "\u2581importants": 2746,
  "\u2581crimes": 2747,
  "\u2581toutefois": 2748,
  "\u2581was": 2749,
  "\u2581\u0440\u0435\u0437\u043e\u043b\u044e\u0446\u0438\u0439": 2750,
  "\u2581atteindre": 2751,
  "\u043b\u043e\u0441\u044c": 2752,
  "\u2581\u043d\u0430\u0446\u0438\u043e\u043d\u0430\u043b\u044c\u043d\u044b\u0435": 2753,
  "\u2581\u043f\u043b\u0430\u043d\u0438\u0440\u043e\u0432\u0430\u043d\u0438\u044f": 2754,
  "avoir": 2755,
  "\u0431\u0438": 2756,
  "\u043f\u043e\u043b": 2757,
  "\u2581porter": 2758,
  "ex": 2759,
  "\u2581\u0441\u0435\u043b\u044c\u0441\u043a\u043e\u0445\u043e\u0437\u044f\u0439\u0441\u0442": 2760,
  "\u2581\u0432\u0435\u0449\u0435\u0441\u0442\u0432": 2761,
  "\u2581\u0440\u0430\u0437\u043b\u0438\u0447\u043d\u044b\u0435": 2762,
  "parle": 2763,
  "\u2581\u0438\u043d\u0442\u0435\u0433\u0440\u0430\u0446\u0438\u0438": 2764,
  "\u2581\u043f\u043e\u043b\u0438\u0442\u0438\u0447\u0435\u0441\u043a\u043e\u0439": 2765,
  "\u2581\u0440\u0430\u0441\u043e\u0432\u043e\u0439": 2766,
  "\u0447\u043b\u0435\u043d\u044b": 2767,
  "\u2581\u0437\u0430\u044f\u0432\u043b\u0435\u043d\u0438\u044f": 2768,
  "\u2581CNUCED": 2769,
  "\u0433\u0430": 2770,
  "\u2581\u0441\u043e\u0433\u043b\u0430\u0448\u0435\u043d\u0438\u0439": 2771,
  "\u043c\u0430\u043d": 2772,
  "\u2581trait\u00e9": 2773,
  "\u2581\u00e9lections": 2774,
  "\u043b\u044e": 2775,
  "\u2581g\u00e9n\u00e9raux": 2776,
  "\u2581\u0440\u0443\u043a\u043e\u0432\u043e\u0434\u044f\u0449\u0438\u0445": 2777,
  "\u25812003,": 2778,
  "\u2581\u043d\u0430\u0440\u043e\u0434\u0430": 2779,
  "\u2581\u043f\u0440\u0435\u0434\u043b\u0430\u0433\u0430\u0435\u0442": 2780,
  "ist": 2781,
  "\u2581\u0440\u0430\u0441\u0441\u043c\u043e\u0442\u0440\u0435\u043d\u0438\u044e": 2782,
  "\u0435\u043d\u0438\u044f": 2783,
  "\u2581\u044d": 2784,
  "\u2581\u0434\u0440\u0443\u0433": 2785,
  "\u2581\u0441\u043e\u043e\u0442\u0432\u0435\u0442\u0441\u0442\u0432\u0443\u044e\u0449\u0438\u043c": 2786,
  "\u25812006,": 2787,
  "\u0447\u0430": 2788,
  "\u2581ad": 2789,
  "\u2581produit": 2790,
  "\u2581\u043e\u0431\u044f\u0437\u0430\u043d\u043d\u043e\u0441\u0442\u0438": 2791,
  "\u2581d\u00fb": 2792,
  "\u043e\u043e\u0442\u0432\u0435\u0442\u0441\u0442\u0432\u0443\u044e\u0449\u0438\u043c\u0438": 2793,
  "\u2581\u0435": 2794,
  "\u2581Congo": 2795,
  "\u2581sp\u00e9cifiques": 2796,
  "\u2581\u043c\u0435\u0442\u043e\u0434\u043e\u0432": 2797,
  "sida": 2798,
  "\u2581\u0441\u0442\u0430\u043d\u0434\u0430\u0440\u0442\u043e\u0432": 2799,
  "\u2581\u0440\u0430\u043d\u0435\u0435": 2800,
  "\u2581\u0434\u043e\u043f\u043e\u043b\u043d\u0438\u0442\u0435\u043b\u044c\u043d\u044b\u0445": 2801,
  "\u2581\u0442\u0435\u0445\u043d\u043e\u043b\u043e\u0433\u0438\u0438": 2802,
  "\u2581\u0444\u0443\u043d\u043a\u0446\u0438\u0439": 2803,
  "\u2581\u043f\u0440\u0430\u0432\u0438\u043b\u0430": 2804,
  "\u2581\u0438\u0437\u043c\u0435\u043d\u0435\u043d\u0438\u0439": 2805,
  "\u2581\u0441\u0435\u043c\u0435\u0439": 2806,
  "m\u00eame": 2807,
  "\u2581actuelle": 2808,
  "\u2581\u0434\u043e\u043f\u043e\u043b\u043d\u0438\u0442\u0435\u043b\u044c\u043d\u044b\u0435": 2809,
  "\u043b\u0430\u0434": 2810,
  "\u043e\u043d": 2811,
  "\u25812000,": 2812,
  "\u2581\u043c\u0435\u0445\u0430\u043d\u0438\u0437\u043c\u044b": 2813,
  "\u2581durant": 2814,
  "\u2581p\u00e8re": 2815,
  "\u2581\u043f\u043e\u0447\u0435\u043c\u0443": 2816,
  "\u2581\u0440\u0435\u0433\u0438\u043e\u043d\u0430\u043b\u044c\u043d\u043e\u043c": 2817,
  "up": 2818,
  "\u2581raisons": 2819,
  "\u2581\u0443\u043b\u0443\u0447\u0448\u0435\u043d\u0438\u044f": 2820,
  "\u2581\u0443\u043a\u0440\u0435\u043f\u043b\u0435\u043d\u0438\u0435": 2821,
  "\u2581\u043c\u0435\u0440\u0430\u0445": 2822,
  "\u2581\u0434\u0435\u044f\u0442\u0435\u043b\u044c\u043d\u043e\u0441\u0442\u044c\u044e": 2823,
  "\u25812004,": 2824,
  "\u2581\u0442\u0440\u0435\u0431\u043e\u0432\u0430\u043d\u0438\u044f": 2825,
  "\u2581\u043e\u0442\u0441\u0443\u0442\u0441\u0442\u0432\u0438\u0435": 2826,
  "\u2581\u0441\u0432\u0435\u0434\u0435\u043d\u0438\u044f": 2827,
  "\u2581minorit\u00e9s": 2828,
  "\u2581\u043f\u0440\u0430\u043a\u0442\u0438\u043a\u0435": 2829,
  ".8": 2830,
  "\u2581\u041f\u0440\u0430\u0432\u0438\u0442\u0435\u043b\u044c\u0441\u0442\u0432\u043e": 2831,
  "\u2581v\u00e9hicule": 2832,
  "\u2581encourager": 2833,
  "\u2581choses": 2834,
  "\u2581\u043b\u044e\u0434\u0438": 2835,
  "\u2581\u043c\u0435\u0436\u0434\u0443\u043d\u0430\u0440\u043e\u0434\u043d\u043e\u043c\u0443": 2836,
  "\u2581d\u00e9finition": 2837,
  "\u2581\u043d\u0430\u043a\u0430\u0437\u0430\u043d\u0438\u044f": 2838,
  "\u2581marchandises": 2839,
  "\u2581tard": 2840,
  "\u2581\u0444\u0438\u043d\u0430\u043d\u0441\u043e\u0432\u044b\u0435": 2841,
  "60": 2842,
  "\u2581vrai": 2843,
  "\u2581pr\u00e9sence": 2844,
  "\u2581solution": 2845,
  "\u2581Est": 2846,
  "\u2581\u0438\u0441\u043f\u043e\u043b\u044c\u0437\u043e\u0432\u0430\u043d\u0438\u0435\u043c": 2847,
  "utilisation": 2848,
  "\u2581\u043c\u043d\u0435\u043d\u0438\u0435": 2849,
  "\u2581\u043b\u0438\u0446\u043e": 2850,
  "\u0443\u0447\u0430\u0441\u0442\u043d\u0438\u043a\u0443": 2851,
  "\u258163": 2852,
  "que": 2853,
  "\u2581\u043e\u0442\u0434\u0435\u043b\u044c\u043d\u044b\u0445": 2854,
  "\u2581D\u00e9": 2855,
  "\u2581essentiel": 2856,
  "\u2581climatiques": 2857,
  "\u2581\u0432\u043d\u0443\u0442\u0440\u0435\u043d\u043d\u0438\u0445": 2858,
  "\u2581\u0442\u043e\u0433\u0434\u0430": 2859,
  "\u2581\u0441\u043e\u0446\u0438\u0430\u043b\u044c\u043d\u043e": 2860,
  "\u2581\u0433\u043e\u0441\u0443\u0434\u0430\u0440\u0441\u0442\u0432\u0443": 2861,
  "\u2581inform\u00e9": 2862,
  "\u2581\u0421\u043e\u0435\u0434\u0438\u043d\u0435\u043d\u043d\u043e": 2863,
  "\u2581m\u00e8re": 2864,
  "\u2581\u0440\u0430\u0439\u043e\u043d\u0435": 2865,
  "\u2581\u043e\u0441\u043d\u043e\u0432\u043d\u044b\u0435": 2866,
  "\u2581sexe": 2867,
  "\u2581\u0437\u0430\u0434\u0430\u0447\u0438": 2868,
  "\u2581\u0444\u043e\u043d\u0434": 2869,
  "\u2581\u0432\u043a\u043b\u044e\u0447\u0438\u0442\u044c": 2870,
  "\u2581culturels": 2871,
  "ure": 2872,
  "\u2581drogues": 2873,
  ".1,": 2874,
  "\u2581\u043f\u043e\u043e\u0449\u0440\u0435\u043d\u0438\u044f": 2875,
  "\u2581construction": 2876,
  "\u2581\u0433\u043e\u0432\u043e\u0440\u0438\u0442\u0441\u044f": 2877,
  "\u2581\u0441\u043e\u0432\u0435\u0449\u0430\u043d\u0438\u0438": 2878,
  "\u2581\u0440\u0430\u0437\u0432\u0438\u0442\u044b\u0445": 2879,
  "\u2581enqu\u00eates": 2880,
  "\u2581\u0442\u0440\u0430\u043d\u0441\u043f\u043e\u0440\u0442\u043d\u044b\u0445": 2881,
  "ensemble": 2882,
  "\u2581\u0432\u043e\u0435\u043d\u043d\u044b\u0445": 2883,
  "\u2581appuyer": 2884,
  "\u2581rapidement": 2885,
  "\u2581\u0410\u0440": 2886,
  "\u2581cat\u00e9gorie": 2887,
  "avais": 2888,
  "\u043f\u0440\u043e": 2889,
  "\u2581d\u00e9ploy\u00e9s": 2890,
  "\u2581\u0432\u043e\u043f\u0440\u043e\u0441\u0430\u043c\u0438": 2891,
  "\u2581\u0441\u0435\u043a\u0442\u043e\u0440\u0435": 2892,
  "\u2581actions": 2893,
  "\u2581sanctions": 2894,
  "\u2581\u0431\u044e\u0434\u0436\u0435\u0442": 2895,
  "\u2581quatri\u00e8me": 2896,
  "\u2581\u043e\u0434\u043d\u043e": 2897,
  "\u2581\u0432\u0430\u0436\u043d\u043e": 2898,
  "\u2581\u0436": 2899,
  "\u041e\u041e\u041d": 2900,
  "\u2581Dis": 2901,
  "\u2581faite": 2902,
  "\u2581\u0432\u043e\u043f\u0440\u043e\u0441\u0430\u0445": 2903,
  "\u2581budg\u00e9taires": 2904,
  "\u2581connaissances": 2905,
  "\u2581sensibilisation": 2906,
  "\u2581palestinien": 2907,
  "\u2581\u043f\u0440\u043e\u0433\u0440\u0430\u043c\u043c\u0443": 2908,
  "\u2581\u043f\u043e\u043b\u043d\u043e\u0433\u043e": 2909,
  "ions": 2910,
  "\u2581\u043d\u043e\u0432\u043e\u0433\u043e": 2911,
  "\u2581=": 2912,
  "\u2581crois": 2913,
  "\u0441\u043a\u0438\u0439": 2914,
  "\u2581conseils": 2915,
  "\u2581venir": 2916,
  "\u2581proc\u00e8s": 2917,
  "\u2581w": 2918,
  "\u2581\u0437\u0430\u043d\u044f\u0442\u043e\u0441\u0442\u0438": 2919,
  "\u25812001,": 2920,
  "\u0442\u043e\u0432": 2921,
  "\u2581\u0437\u0430\u043a\u043b\u044e\u0447\u0430\u0435\u0442\u0441\u044f": 2922,
  "\u2581consid\u00e9r\u00e9e": 2923,
  "\u2581\u0434\u0435\u043a\u043b\u0430\u0440\u0430\u0446\u0438\u0438": 2924,
  "\u043d\u0438\u043c\u0430": 2925,
  "\u2581\u0421\u043e\u0432\u0435\u0442\u0443": 2926,
  "\u2581Etats": 2927,
  "\u2581\u041a\u043e\u043c\u0438\u0442\u0435\u0442\u0443": 2928,
  "40": 2929,
  "\u2581\u00e9lev\u00e9": 2930,
  "\u2581\u0432\u043e\u0437": 2931,
  "tion": 2932,
  "\u258180": 2933,
  "\u2581\u043f\u0440\u043e\u0435\u043a\u0442\u0443": 2934,
  "\u2581\u043f\u0440\u0438\u0437\u043d\u0430\u0442\u0435\u043b\u044c\u043d\u043e\u0441\u0442\u044c": 2935,
  "eux": 2936,
  "\u2581TRANS": 2937,
  "\u2581\u043f\u043e\u0434\u0434\u0435\u0440\u0436\u0438\u0432\u0430\u0435\u0442": 2938,
  "\u2581charg\u00e9e": 2939,
  "\u2581regard": 2940,
  "\u2581am\u00e9lioration": 2941,
  "\u0434\u0443\u043c\u0430": 2942,
  "ge": 2943,
  "\u2581r\u00e9alis\u00e9s": 2944,
  "\u2581\u0441\u0442\u043e\u0440\u043e\u043d\u0430\u043c\u0438": 2945,
  "\u2581\u0441\u0443\u0449\u0435\u0441\u0442\u0432\u0443\u0435\u0442": 2946,
  "\u2581\u0414\u043e\u0433\u043e\u0432\u043e\u0440\u0430": 2947,
  "\u2581\u0441\u043f\u0435\u0446\u0438\u0430\u043b\u0438\u0441\u0442\u043e\u0432": 2948,
  "\u2581U": 2949,
  "\u0441\u043a\u0438\u0435": 2950,
  "\u0449\u0435": 2951,
  "\u2581\u043e\u0440\u0433\u0430\u043d\u0430": 2952,
  "\u2581devra": 2953,
  "\u2581commis": 2954,
  "\u2581\u043c\u0435\u0441\u0442": 2955,
  "\u2581\u0421\u0435\u043a\u0440\u0435\u0442\u0430\u0440\u0438\u0430\u0442\u0430": 2956,
  "J": 2957,
  "\u2581initiative": 2958,
  "\u2581Web": 2959,
  "\u2581\u0428\u0442\u0430\u0442\u044b": 2960,
  "\u2581\u043f\u0443\u043d\u043a\u0442\u043e\u0432": 2961,
  "\u2581terres": 2962,
  "\u2581faudrait": 2963,
  "\u2581principales": 2964,
  "\u2581\u0440\u044f\u0434\u0430": 2965,
  "\u2581\u0441\u043b\u0435\u0434\u0443\u044e\u0449\u0438\u0445": 2966,
  "\u2581migrants": 2967,
  "\u2581\u00e9liminer": 2968,
  "://": 2969,
  "\u2581\u0433\u043b\u0430\u0432\u043d\u044b\u043c": 2970,
  "\u2581\u0441\u0440\u0430\u0432\u043d\u0435\u043d\u0438\u044e": 2971,
  "\u043e\u0441\u044c": 2972,
  "\u2581\u0441\u043e\u0432\u0435\u0442\u0430": 2973,
  "\u2581\u0434\u0430\u043d\u043d\u043e\u0439": 2974,
  "\u2581\u043f\u0440\u0435\u0434\u0443\u043f\u0440\u0435\u0436\u0434\u0435\u043d\u0438\u044f": 2975,
  "\u2581\u043c\u0435\u0441\u044f\u0446\u0435\u0432": 2976,
  "\u2581soixante": 2977,
  "\u2581\u0441\u0435\u043a\u0440\u0435\u0442\u0430\u0440\u0438\u0430\u0442\u0430": 2978,
  "\u2581\u043a\u043e\u043d\u0444\u043b\u0438\u043a\u0442\u0430": 2979,
  "\u2581\u043d\u0435\u043e\u0431\u0445\u043e\u0434\u0438\u043c\u044b\u0445": 2980,
  "\u2581naturelles": 2981,
  "\u2581\u0440\u0430\u0431\u043e\u0447\u0435\u0439": 2982,
  "\u2581parvenir": 2983,
  "\u2581\u0434\u0438\u0430\u043b\u043e\u0433\u0430": 2984,
  "\u2581d\u00e8s": 2985,
  "\u0436\u0434": 2986,
  "si": 2987,
  "\u2581]": 2988,
  "\u2581\u0444\u0438\u043d\u0430\u043d\u0441\u043e\u0432\u043e\u0439": 2989,
  "\u2581Cor\u00e9e": 2990,
  "\u2581\u041f\u043e\u0441\u0442\u043e\u044f\u043d\u043d": 2991,
  "\u2581\u043e\u0442\u043d\u043e\u0448\u0435\u043d\u0438\u0439": 2992,
  "\u2581citoyens": 2993,
  "\u043f\u0440\u0438": 2994,
  "\u2581importantes": 2995,
  "\u2581s\u00e9ances": 2996,
  "\u2581\u0432\u044b\u0431\u043e\u0440\u043e\u0432": 2997,
  "\u2581\u043f\u0440\u0438\u043b\u043e\u0436\u0435\u043d\u0438\u044f": 2998,
  "\u2581\u043e\u0442\u043d\u043e\u0448\u0435\u043d\u0438\u044f": 2999,
  "\u2581\u043d\u0430\u0441\u0442\u043e\u044f\u0449\u0435\u0439": 3000,
  "\u2581r\u00e9aliser": 3001,
  "\u2581\u0441\u043f\u0435\u0446\u0438\u0430\u043b\u044c\u043d\u043e\u0439": 3002,
  "\u2581origine": 3003,
  "\u2581cons\u00e9quence": 3004,
  "\u2581\u043b\u044e\u0431\u043e\u0439": 3005,
  "\u2581\u043c\u0430\u0441\u0448\u0442\u0430\u0431\u043e\u0432": 3006,
  "\u2581petits": 3007,
  "\u25817.": 3008,
  "\u2581\u0434\u0430\u043d\u043d\u043e\u0433\u043e": 3009,
  "\u2581chimiques": 3010,
  "\u2581stabilit\u00e9": 3011,
  "\u2581passe": 3012,
  "\u2581\u0443\u0434\u043e\u0432\u043b\u0435\u0442\u0432\u043e\u0440\u0435\u043d\u0438\u0435\u043c": 3013,
  "\u2581\u0441\u043e\u0437\u0434\u0430\u043d\u0438\u0438": 3014,
  "\u2581difficile": 3015,
  "\u2581\u0417\u0430\u043a\u043e\u043d\u0430": 3016,
  "\u2581\u0442\u0440\u0435\u0442\u044c\u0435\u0439": 3017,
  "\u2581textes": 3018,
  "\u2581\u043a\u0430\u0436\u0434\u043e\u0439": 3019,
  "\u2581\u043c\u0430\u0441\u0441\u043e\u0432\u043e\u0439": 3020,
  "\u2581ligne": 3021,
  "\u2581\u0422\u0435\u043c": 3022,
  "\u2581\u0433\u043e\u0441\u0443\u0434\u0430\u0440\u0441\u0442\u0432\u043e\u043c": 3023,
  "\u2581main": 3024,
  "tr": 3025,
  "assistance": 3026,
  "\u2581clairement": 3027,
  "\u2581suivant": 3028,
  "\u2581soci\u00e9t\u00e9s": 3029,
  "\u0430\u043d": 3030,
  "\u25812007,": 3031,
  "\u2581commune": 3032,
  ".9": 3033,
  "uc": 3034,
  "\u2581exploitation": 3035,
  "\u2581\u043d\u0430\u043f\u0440\u0430\u0432\u043b\u0435\u043d\u043d\u044b\u0445": 3036,
  "\u2581\u043f\u0440\u043e\u0433\u0440\u0430\u043c\u043c\u0435": 3037,
  "\u2581\u0433\u0443\u043c\u0430\u043d\u0438\u0442\u0430\u0440\u043d\u043e\u0439": 3038,
  "\u2581\u0441\u043e\u0441\u0442\u043e\u044f\u043d\u0438\u044e": 3039,
  "\u2581Apr\u00e8s": 3040,
  "\u2581\u0434\u043d\u0435\u0439": 3041,
  "\u2581professionnelle": 3042,
  "\u2581\u0443\u0447\u0435\u0431\u043d\u044b\u0445": 3043,
  "/201": 3044,
  "\u2581ordinaire": 3045,
  "\u2581Sa": 3046,
  "-1": 3047,
  "\u2581puis": 3048,
  "\u0440\u043e\u0434": 3049,
  "\u2581salle": 3050,
  "\u2581d\u00e9lai": 3051,
  "\u0433\u043b": 3052,
  "\u2581\u043a\u0443\u043b\u044c\u0442\u0443\u0440\u044b": 3053,
  "\u2581d\u00e9bats": 3054,
  "\u2581instrument": 3055,
  "\u2581\u0441\u043b\u043e\u0432\u0430": 3056,
  "\u2581\u043f\u0440\u0438\u043d\u044f\u043b\u0430": 3057,
  "\u043e\u0432\u0430\u0442\u044c": 3058,
  "\u2581\u0440\u0430\u0439\u043e\u043d\u043e\u0432": 3059,
  "\u2581\u043f\u043e\u043b\u043d\u043e\u043c\u043e\u0447\u0438\u0439": 3060,
  "\u2581\u0441\u0430\u043c\u043e": 3061,
  "\u2581menace": 3062,
  "\u2581r\u00e9cemment": 3063,
  "\u2581destruction": 3064,
  "j": 3065,
  "\u2581logement": 3066,
  "\u2581Partie": 3067,
  "\u2581Japon": 3068,
  "\u043c\u0430": 3069,
  "\u2581\u0438\u043c\u0435\u044e\u0449\u0438\u0445": 3070,
  "\u2581organis\u00e9e": 3071,
  "\u2581parti": 3072,
  "\u2581familles": 3073,
  "\u043f\u0430": 3074,
  "\u2581\u043d\u0435\u0435": 3075,
  "\u2581m\u00e9dias": 3076,
  "\u2581\u044d\u043a\u043e\u043d\u043e\u043c\u0438\u043a\u0438": 3077,
  "min": 3078,
  "\u2581pri\u00e9": 3079,
  "\u2581vingt": 3080,
  "\u2581favoriser": 3081,
  "\u2581\u00e9valuer": 3082,
  "di": 3083,
  "\u2581\u0434\u0435\u0442\u044c\u043c\u0438": 3084,
  "\u2581\u043f\u0440\u043e\u0438\u0441\u0445\u043e\u0436\u0434\u0435\u043d\u0438\u044f": 3085,
  "\u2581entendu": 3086,
  "\u2581\u0432\u043e\u0442": 3087,
  "\u2581\u0442\u0435\u0440\u0440\u043e\u0440\u0438\u0437\u043c\u043e\u043c": 3088,
  "\u2581\u0441\u043e\u0441\u0442\u043e\u044f\u043d\u0438\u0438": 3089,
  "\u2581r": 3090,
  "\u2581\u043d\u0430\u0438\u043c\u0435\u043d": 3091,
  "\u2581\u0441\u043e\u0432\u0435\u0449\u0430\u043d\u0438\u0439": 3092,
  "\u2581\u043e\u043f\u0435\u0440\u0430\u0446\u0438\u0438": 3093,
  "\u0430\u0440": 3094,
  "\u2581\u043f\u043e\u0432\u044b\u0448\u0435\u043d\u0438\u044e": 3095,
  "\u0441\u043c\u043e\u0442\u0440": 3096,
  "\u2581\u043f\u043e\u043b\u043e\u0436\u0435\u043d\u0438\u044f\u043c\u0438": 3097,
  "\u2581\u00e9quipe": 3098,
  "\u2581technologie": 3099,
  "\u2581\u0431\u0443\u0434\u0443\u0449\u0435\u043c": 3100,
  "\u2581\u0434\u0435\u0432\u043e\u0447\u0435\u043a": 3101,
  "\u2581\u0432\u043d\u0443\u0442\u0440\u0435\u043d\u043d\u0435\u0433\u043e": 3102,
  "\u2581\u043d\u0430\u043f\u0440\u0430\u0432\u043b\u0435\u043d\u043d\u044b\u0435": 3103,
  "\u2581trouve": 3104,
  "\u043a\u043e\u043c": 3105,
  "\u2581parents": 3106,
  "ver": 3107,
  "\u2581\u043d\u0430\u0437\u043d\u0430\u0447\u0435\u043d\u0438\u044f": 3108,
  "\u2581\u0433\u0440\u0443\u043f\u043f\u043e\u0439": 3109,
  "\u2581garanties": 3110,
  "rait": 3111,
  "op": 3112,
  "ations": 3113,
  "2.": 3114,
  "\u2581\u043e\u0431\u0443\u0447\u0435\u043d\u0438\u044f": 3115,
  "\u2581\u0441\u043f\u0435\u0446\u0438\u0430\u043b\u0438\u0437\u0438\u0440\u043e\u0432\u0430": 3116,
  "acc\u00e8s": 3117,
  "\u2581impact": 3118,
  "\u2581\u0434\u0435\u043b\u0443": 3119,
  "\u2581\u0434\u043e\u0441\u0442\u0438\u0436\u0435\u043d\u0438\u044e": 3120,
  "\u2581\u043e\u0437\u0430\u0431\u043e\u0447\u0435\u043d\u043d\u043e\u0441\u0442\u044c": 3121,
  "\u2581\u0441\u0441\u044b\u043b\u0430\u044f\u0441\u044c": 3122,
  "\u2581\u043e\u0437\u043d\u0430\u0447\u0430\u0435\u0442": 3123,
  "\u0430\u043d\u0433\u043b\u0438\u0439\u0441\u043a\u0438": 3124,
  "\u2581criminalit\u00e9": 3125,
  "\u2581\u043f\u0435\u0440\u0435\u0434\u0430\u0447\u0438": 3126,
  "65": 3127,
  "\u2581permet": 3128,
  "\u2581accro\u00eetre": 3129,
  "\u2581\u044d\u043a\u0441\u043f\u043b\u0443\u0430\u0442\u0430\u0446\u0438\u0438": 3130,
  "\u2581\u0418\u0440\u0430\u043a\u0430": 3131,
  "\u043e\u0440": 3132,
  "\u2581phase": 3133,
  "\u2581\u041a\u0442\u043e": 3134,
  "\u2581Con": 3135,
  "\u2581\u0441\u0435\u043b\u044c\u0441\u043a\u0438\u0445": 3136,
  "\u2581\u0442\u043e\u0432\u0430\u0440\u043e\u0432": 3137,
  "\u2581\u043d\u043e\u0432\u043e\u0439": 3138,
  "\u2581\u043f\u0440\u0438\u043d\u044f\u0442": 3139,
  "\u2581\u0437\u043d\u0430\u0435\u0448\u044c": 3140,
  "\u2581\u043f\u0440\u0435\u0434\u0441\u0442\u0430\u0432\u043b\u044f\u0435\u0442\u0441\u044f": 3141,
  "\u2581\u0432\u043e\u0437\u0434\u0435\u0439\u0441\u0442\u0432\u0438\u044f": 3142,
  "\u2581Elles": 3143,
  "vi": 3144,
  "\u2581\u0421\u0435\u043a\u0440\u0435\u0442\u0430\u0440\u0438\u0430\u0442": 3145,
  "\u2581pr\u00e9occupation": 3146,
  "\u2581investissements": 3147,
  "\u2581passer": 3148,
  "\u2581\u0441\u0432\u043e\u0438\u043c": 3149,
  "ex\u00e9cution": 3150,
  "\u2581/": 3151,
  "\u2581\u044d\u0442\u0430\u043f\u0435": 3152,
  "\u2581\u0441\u043e\u0432\u0435\u0442": 3153,
  "\u2581avanc\u00e9s": 3154,
  "\u2581El": 3155,
  "\u2581\u0440\u0435\u0441\u0443\u0440\u0441\u0430\u043c\u0438": 3156,
  "\u2581fourni": 3157,
  "\u2581\u041a\u043e\u043d\u0444\u0435\u0440\u0435\u043d\u0446\u0438\u044f": 3158,
  "&": 3159,
  "co": 3160,
  "\u2581\u043f\u043e\u043c\u043e\u0447\u044c": 3161,
  "\u2581\u043f\u043e\u0434\u0447\u0435\u0440\u043a\u0438\u0432\u0430\u0435\u0442": 3162,
  "\u2581300": 3163,
  "\u2581ONG": 3164,
  "\u2581\u043e\u0431\u0449\u0435\u0441\u0442\u0432\u0435\u043d\u043d\u043e\u0441\u0442\u0438": 3165,
  "ard": 3166,
  "\u2581affaire": 3167,
  "\u0441\u0442\u0430\u0432": 3168,
  "\u0442\u043e\u0440": 3169,
  "\u0443\u0447\u0430\u0441\u0442\u043d\u0438\u043a\u0430": 3170,
  "\u2581\u043e\u0440\u0443\u0436\u0438\u0435\u043c": 3171,
  "\u2581\u0434\u0443\u043c\u0430\u044e": 3172,
  "\u2581sup\u00e9rieur": 3173,
  "\u2581Cara\u00efbes": 3174,
  "\u2581\u041c\u043e\u0436\u0435\u0442": 3175,
  "\u2581comp\u00e9tence": 3176,
  "experts": 3177,
  "\u2581\u043c\u0435\u043d\u044c\u0448\u0438\u043d\u0441\u0442\u0432": 3178,
  "\u2581consolidation": 3179,
  "\u2581gouvernance": 3180,
  "\u0441\u043a\u0430\u044f": 3181,
  "\u2581\u0440\u0430\u0441\u0441\u043c\u043e\u0442\u0440\u0435\u043d\u0438\u0438": 3182,
  "\u2581extraordinaire": 3183,
  "\u2581final": 3184,
  "\u2581\u0435\u0449\u0451": 3185,
  "\u258159": 3186,
  "\u2581faible": 3187,
  "\u2581\u0442\u0440\u0435\u0431\u0443\u0435\u0442": 3188,
  "\u2581\u0434\u0432\u0435": 3189,
  "\u0444": 3190,
  "\u2581utile": 3191,
  "\u2581\u0441\u0443\u0449\u0435\u0441\u0442\u0432\u0443\u044e\u0449\u0438\u0445": 3192,
  "\u2581proc\u00e9der": 3193,
  "12": 3194,
  "\u2581\u043e\u0431\u044a\u0435\u043c\u0435": 3195,
  "\u0440\u0435\u043d": 3196,
  "\u0427": 3197,
  "\u2581\u0438\u043d\u0444\u0440\u0430\u0441\u0442\u0440\u0443\u043a\u0442\u0443\u0440\u044b": 3198,
  "\u2581\u043f\u0440\u043e\u0432\u0435\u0434\u0435\u043d\u0438\u044e": 3199,
  "Y": 3200,
  "\u0438\u043b\u0430": 3201,
  "\u043f\u0435\u0440": 3202,
  "\u2581maison": 3203,
  "\u2581\u0433\u0440\u0443\u043f\u043f\u0435": 3204,
  "\u2581diffusion": 3205,
  "\u0433\u043e\u0441\u0443\u0434\u0430\u0440\u0441\u0442\u0432\u0435\u043d\u043d\u043e\u0433\u043e": 3206,
  "\u2581\u0441\u043c": 3207,
  "\u2581\u043d\u0430\u0437\u0430\u0434": 3208,
  "ign": 3209,
  "\u2581\u043f\u0440\u0430\u0432\u0443": 3210,
  "\u25812008,": 3211,
  "\u2581\u0436\u0435\u043d\u0449\u0438\u043d\u0430\u043c\u0438": 3212,
  "\u2581applicables": 3213,
  "\u2581\u043a\u0430\u043a\u0438\u0445": 3214,
  "\u2581types": 3215,
  "\u2581v\u00e9rification": 3216,
  "\u2581\u0427": 3217,
  "\u2581\u0441\u0430\u043c\u044b\u043c": 3218,
  "\u2581\u0444\u043e\u0440\u043c\u0435": 3219,
  "air": 3220,
  "\u2581figure": 3221,
  "\u2581\u043e\u0431\u043c\u0435\u043d\u0430": 3222,
  "\u2581\u0446\u0435\u043d": 3223,
  "\u2581\u00e9chelle": 3224,
  "\u2581solutions": 3225,
  "\u2581conna\u00eetre": 3226,
  "\u2581\u0442\u0435\u0440\u0440\u043e\u0440\u0438\u0437\u043c\u0430": 3227,
  "www": 3228,
  "\u2581Section": 3229,
  "ta": 3230,
  "15": 3231,
  "\u0436\u0443": 3232,
  "2,": 3233,
  "\u2581\u043d\u0430\u0445\u043e\u0434\u0438\u0442\u0441\u044f": 3234,
  "\u0441\u043e": 3235,
  "\u2581\u0442\u0435\u0445\u043d\u0438\u0447\u0435\u0441\u043a\u043e\u0433\u043e": 3236,
  "\u2581chacun": 3237,
  "\u258166": 3238,
  "\u2581\u0422\u0430\u043a\u0438\u043c": 3239,
  "\u2581\u00e9volution": 3240,
  "\u2581\u0432\u044b\u043f\u043e\u043b\u043d\u044f\u0442\u044c": 3241,
  "\u2581estim\u00e9": 3242,
  "\u2581\u0441\u0442\u0430\u0442\u044c": 3243,
  "\u2581\u042d\u0439": 3244,
  "\u2581relevant": 3245,
  "\u2581\u0422\u043e": 3246,
  "\u2581principal": 3247,
  "\u2581civil": 3248,
  "\u2581\u0432\u043d\u0443\u0442\u0440\u0438": 3249,
  "\u2581parole": 3250,
  "\u2581\u043e\u0441\u043e\u0431\u043e\u0435": 3251,
  "\u2581absence": 3252,
  "\u0441\u0442\u0443\u043f": 3253,
  "\u0432\u0438\u0434": 3254,
  "\u0420": 3255,
  "\u2581revenu": 3256,
  "\u0430\u0442": 3257,
  "\u2581\u0440\u0430\u0441\u0441\u043b\u0435\u0434\u043e\u0432\u0430\u043d\u0438\u044f": 3258,
  "\u2581\u0436\u0435\u0440\u0442\u0432": 3259,
  "\u2581\u0434\u0435\u0439\u0441\u0442\u0432\u0438\u0435": 3260,
  "\u2581\u0440\u0430\u0437\u043e\u0440\u0443\u0436\u0435\u043d\u0438\u044e": 3261,
  "68": 3262,
  "\u2581for\u00eats": 3263,
  "\u00e9laboration": 3264,
  "\u2581\u0443\u0440\u0435\u0433\u0443\u043b\u0438\u0440\u043e\u0432\u0430\u043d\u0438\u044f": 3265,
  "\u2581\u00e9viter": 3266,
  "\u2581\u00c9": 3267,
  "\u043d\u043e\u043c\u0443": 3268,
  "\u2581\u043e\u0431\u0435\u0441\u043f\u0435\u0447\u0435\u043d\u0438\u0438": 3269,
  "\u2581islamique": 3270,
  "\u2581mines": 3271,
  "\u2581modalit\u00e9s": 3272,
  "\u2581concern\u00e9s": 3273,
  "\u2581facteurs": 3274,
  "\u2581publi\u00e9": 3275,
  "\u2581partenariats": 3276,
  "\u2581\u043e\u0446\u0435\u043d\u043a\u0443": 3277,
  "\u2581\u043f\u043e\u0432\u044b\u0448\u0435\u043d\u0438\u0435": 3278,
  "\u2581\u0443\u0447\u0440\u0435\u0436\u0434\u0435\u043d\u0438\u044f\u0445": 3279,
  "\u2581Enfin": 3280,
  "\u2581organe": 3281,
  "\u258190": 3282,
  "\u2581\u0440\u0435\u0444\u043e\u0440\u043c\u044b": 3283,
  "\u2581\u043c\u043e\u043b\u043e\u0434\u0435\u0436\u0438": 3284,
  "\u2581corruption": 3285,
  "\u2581donn\u00e9e": 3286,
  "r\u00e9solution": 3287,
  "\u2581vos": 3288,
  "\u2581\u0438\u0441\u043f\u043e\u043b\u043d\u0435\u043d\u0438\u0435": 3289,
  "\u2581incidences": 3290,
  "\u2581structure": 3291,
  "\u2581voix": 3292,
  "\u0438\u0441\u0442": 3293,
  "\u2581\u043f\u0435\u0440\u0435\u0445\u043e\u0434\u043d\u043e": 3294,
  "\u2581\u042d\u043a\u043e\u043d\u043e\u043c\u0438\u0447\u0435\u0441\u043a\u043e\u0433\u043e": 3295,
  "emploi": 3296,
  "\u0435\u043d\u0442": 3297,
  "\u2581\u0415\u0432\u0440\u043e\u043f\u044b": 3298,
  "\u2581\u0438\u043d\u0438\u0446\u0438\u0430\u0442\u0438\u0432": 3299,
  "\u2581\u0438\u0434\u0435\u0442": 3300,
  "\u2581puissent": 3301,
  "\u2581liens": 3302,
  "\u2581\u043d\u0438\u043a\u0430\u043a\u0438\u0445": 3303,
  "\u2581autant": 3304,
  "\u2581installations": 3305,
  "to": 3306,
  "\u2581comprendre": 3307,
  "\u2581\u0442\u0440\u0435\u0431\u043e\u0432\u0430\u043d\u0438\u0439": 3308,
  "\u2581responsable": 3309,
  "/57/": 3310,
  "\u2581\u00e9lectronique": 3311,
  "\u2581\u043a\u043e\u043d\u0446\u0435": 3312,
  "\u0434\u0435\u043d": 3313,
  "\u258167": 3314,
  "\u2581alimentaire": 3315,
  "\u2581Annexe": 3316,
  "\u2581\u043f\u043e\u043a\u0430\u0437\u0430\u0442\u0435\u043b\u0438": 3317,
  "\u043b\u0435\u043d": 3318,
  "\u2581\u043e\u0431\u043c\u0435\u043d": 3319,
  "\u2581constituent": 3320,
  "\u2581quelqu": 3321,
  "80": 3322,
  "\u2581grands": 3323,
  "\u2581\u043b\u044e\u0431\u044b\u0445": 3324,
  "\u2581port\u00e9e": 3325,
  "90": 3326,
  "\u2581pl\u00e9ni\u00e8re": 3327,
  "\u2581\u0441\u0442\u0440\u0430\u0436\u0435\u0439": 3328,
  "\u2581not": 3329,
  "\u2581\u0441\u043b\u0443\u0436\u0431": 3330,
  "\u2581\u0441\u0443\u043c\u043c\u0443": 3331,
  "\u2581\u0438\u043d\u0432\u0435\u0441\u0442\u0438\u0446\u0438\u0439": 3332,
  "\u2581\u0434\u0432\u0438\u0436\u0435\u043d\u0438\u044f": 3333,
  "\u2581\u043f\u043e\u0447\u0442\u0438": 3334,
  "\u2581\u0441\u043e\u043e\u0442\u0432\u0435\u0442\u0441\u0442\u0432\u0443\u044e\u0449\u0435\u0439": 3335,
  "\u2581choix": 3336,
  "\u2581\u00e9change": 3337,
  "\u2581semble": 3338,
  "\u2581catastrophes": 3339,
  "\u2581Projet": 3340,
  "\u2581changement": 3341,
  "\u2581\u043e\u0440\u0433\u0430\u043d": 3342,
  "\u2581tenant": 3343,
  "\u0448\u044c": 3344,
  "\u2581\u0441\u0443\u0434\u043e\u0432": 3345,
  "\u2581ville": 3346,
  "\u2581\u043b\u0438\u0446\u0430\u043c": 3347,
  "\u2581sexuelle": 3348,
  "\u2581comp": 3349,
  "\u2581terroristes": 3350,
  "ue": 3351,
  "1.": 3352,
  "\u2581Si\u00e8ge": 3353,
  "\u2581mises": 3354,
  "\u2581retour": 3355,
  "\u2581Compte": 3356,
  "@": 3357,
  "\u2581\u0414\u0436\u0435": 3358,
  "ner": 3359,
  "\u00b0": 3360,
  "\u2581\u0441\u043e\u0442\u0440\u0443\u0434\u043d\u0438\u0447\u0435\u0441\u0442\u0432\u0443": 3361,
  "\u2581\u043e\u0442\u0447\u0435\u0442": 3362,
  "\u0440\u0435\u0437\u043e\u043b\u044e\u0446\u0438\u044f": 3363,
  "AL": 3364,
  "\u2581\u0418\u0441\u043f\u043e\u043b\u043d\u0438\u0442\u0435\u043b\u044c\u043d": 3365,
  "\u2581pauvres": 3366,
  "\u2581entr\u00e9e": 3367,
  "\u2581\u041f\u0440\u043e\u0433\u0440\u0430\u043c\u043c\u0430": 3368,
  "\u2581globale": 3369,
  "\u25818.": 3370,
  "\u2581\u0441\u0435\u0442\u0438": 3371,
  "\u2581particuli\u00e8re": 3372,
  "\u0440\u0430\u0437": 3373,
  "\u2581pouvait": 3374,
  "\u2581fond\u00e9e": 3375,
  ".10": 3376,
  "\u25812015": 3377,
  "\u2581\u0434\u043e\u0431\u0438\u0442\u044c\u0441\u044f": 3378,
  ".12": 3379,
  "\u2581Examen": 3380,
  "Orient": 3381,
  "ial": 3382,
  "\u2581\u043c\u0438\u0441\u0441\u0438\u0439": 3383,
  "\u2581\u043e\u043f\u044b\u0442": 3384,
  "\u2581as": 3385,
  "\u044d\u043d": 3386,
  "\u2581\u043e\u0442\u0447\u0435\u0442\u043d\u043e\u0441\u0442\u0438": 3387,
  "\u2581\u0441\u043e\u0441\u0442\u043e\u0438\u0442": 3388,
  "res": 3389,
  "\u2581juge": 3390,
  "\u2581\u041d\u041f\u041e": 3391,
  "\u2581O\u00f9": 3392,
  "\u2581plut\u00f4t": 3393,
  "\u2581\u0442\u0440\u0430\u043d\u0441\u043f\u043e\u0440\u0442\u043d\u043e": 3394,
  "lo": 3395,
  "qui": 3396,
  "\u2581Soudan": 3397,
  "\u2581juges": 3398,
  "\u2581\u043e\u0431\u0441\u043b\u0443\u0436\u0438\u0432\u0430\u043d\u0438\u0435": 3399,
  "\u2581\u043f\u0440\u0435\u0434\u043e\u0441\u0442\u0430\u0432\u043b\u0435\u043d\u0438\u0435": 3400,
  "\u2581\u0441\u0434\u0435\u043b\u0430\u043b": 3401,
  "\u2581acteurs": 3402,
  "5": 3403,
  "\u2581\u043f\u043e\u0440\u044f\u0434\u043a\u0430": 3404,
  "\u2581Pays": 3405,
  "\u2581\u0434\u043e\u0433\u043e\u0432\u043e\u0440\u043e\u0432": 3406,
  "\u2581\u0442\u0443\u0442": 3407,
  "\u2581autorit\u00e9": 3408,
  "\u2581\u0441\u0442\u0440\u0443\u043a\u0442\u0443\u0440\u044b": 3409,
  "\u0438\u0442\u0441\u044f": 3410,
  "11": 3411,
  "\u2581\u0445\u043e\u0442\u0435\u043b\u0430": 3412,
  "\u2581g\u00e9n\u00e9rales": 3413,
  "\u2581illicite": 3414,
  "\u2581Quand": 3415,
  "\u2581\u043f\u044f\u0442\u0438": 3416,
  "\u2581meilleure": 3417,
  "\u2581\u043f\u0443\u043d\u043a\u0442\u0430\u0445": 3418,
  "\u2581Bosnie": 3419,
  "\u2581\u0437\u043d\u0430\u0435\u0442": 3420,
  "\u2581\u043f\u0440\u043e\u0435\u043a\u0442\u044b": 3421,
  "prolif\u00e9ration": 3422,
  "ow": 3423,
  "\u2581\u0426\u0435\u043d\u0442\u0440\u0430\u043b\u044c\u043d\u044b": 3424,
  "\u0438\u0442\u044c\u0441\u044f": 3425,
  "\u2581conventions": 3426,
  "\u2581terre": 3427,
  "\u2581\u0421\u043c": 3428,
  "\u2581\u0441\u0440\u0435\u0434\u0435": 3429,
  "\u2581\u041c\u0435\u0436\u0434\u0443\u043d\u0430\u0440\u043e\u0434\u043d\u044b\u0439": 3430,
  "17": 3431,
  "\u0446": 3432,
  "\u2581\u043e\u0442\u043c\u0435\u0442\u0438\u043b\u0430": 3433,
  "\u0441\u0442\u0430\u043d": 3434,
  "\u2581\u0437\u0430\u043a\u043b\u044e\u0447\u0435\u043d\u0438\u044f": 3435,
  "AN": 3436,
  "\u2581pr\u00e9sent\u00e9s": 3437,
  "\u2581libert\u00e9s": 3438,
  "\u2581propri\u00e9t\u00e9": 3439,
  "\u2581modifier": 3440,
  "\u2581\u0448\u0435\u0441\u0442\u044c\u0434\u0435\u0441\u044f\u0442": 3441,
  "\u2581\u043f\u0440\u043e\u0431\u043b\u0435\u043c\u0430\u043c": 3442,
  "\u2581\u0434\u0435\u0442\u0438": 3443,
  "\u2581\u041a\u043e\u043d\u0441\u0443\u043b\u044c\u0442\u0430\u0442\u0438\u0432\u043d": 3444,
  "ab": 3445,
  "\u0440\u043e": 3446,
  "\u2581m\u00eames": 3447,
  "\u2581cat\u00e9gories": 3448,
  "\u2581source": 3449,
  "\u2581\u043f\u0440\u0435\u0434\u0441\u0442\u0430\u0432\u043b\u0435\u043d\u044b": 3450,
  "\u2581\u0441\u043b\u0438\u0448\u043a\u043e\u043c": 3451,
  "\u2581\u0447\u0430\u0441\u0442\u043e": 3452,
  "\u2581tient": 3453,
  "\u2581facultatif": 3454,
  "\u2581\u0433\u043e\u0434\u0430\u0445": 3455,
  "\u2581\u0440\u0430\u0431\u043e\u0442\u043d\u0438\u043a\u043e\u0432": 3456,
  "\u2581\u043d\u043e\u0432\u044b\u0439": 3457,
  "\u2581Pacifique": 3458,
  "\u2581\u0424\u043e\u043d\u0434\u0430": 3459,
  "\u2581\u043c\u043e\u044f": 3460,
  "\u2581\u041c\u0438": 3461,
  "ens": 3462,
  "\u2581envisager": 3463,
  "\u2581\u043f\u0440\u0438\u0447\u0438\u043d": 3464,
  "\u2581\u0447\u0435\u0442\u0432\u0435\u0440\u0442\u043e\u0439": 3465,
  "\u2581J\u00e9hovah": 3466,
  "\u2581consensus": 3467,
  "\u0441\u0442\u0432\u0443": 3468,
  "\u2581formul\u00e9es": 3469,
  "\u2581si\u00e8ge": 3470,
  "\u2581contrat": 3471,
  "\u2581\u0423\u0412\u041a\u0411": 3472,
  "\u2581\u043f\u0440\u0435\u0434\u0441\u0442\u0430\u0432\u043b\u044f\u0442\u044c": 3473,
  "\u2581\u0442\u043e\u0431\u043e\u0439": 3474,
  "\u2581\u043f\u043b\u0430\u043d\u043e\u0432": 3475,
  "66": 3476,
  "\u2581consultation": 3477,
  "\u0440\u0430\u0432": 3478,
  "\u2581infractions": 3479,
  "\u2581\u041b\u0438": 3480,
  "tain": 3481,
  "\u043d\u043d\u044b\u0445": 3482,
  "\u2581\u043f\u0440\u0438\u043c\u0435\u0440\u043d\u043e": 3483,
  "\u2581\u0421\u0442\u043e\u0440\u043e\u043d\u044b": 3484,
  "\u2581obstacles": 3485,
  "\u2581\u043f\u044f\u0442\u044c": 3486,
  "\u2581Ainsi": 3487,
  "\u2581partenariat": 3488,
  "\u2581\u0433\u0435\u043d\u0434\u0435\u0440\u043d\u043e\u0433\u043e": 3489,
  "3.": 3490,
  "IS": 3491,
  "\u2581conduite": 3492,
  "\u2581\u0434\u043e\u0441\u0442\u0430\u0442\u043e\u0447\u043d\u043e": 3493,
  ".11": 3494,
  "\u2581\u0440\u0430\u0441\u0441\u043c\u0430\u0442\u0440\u0438\u0432\u0430\u0442\u044c": 3495,
  "\u2581\u0443\u0441\u0442\u043e\u0439\u0447\u0438\u0432\u043e\u043c\u0443": 3496,
  "70": 3497,
  "\u2581invit\u00e9": 3498,
  "\u2581\u0440\u0443\u043a\u043e\u0432\u043e\u0434\u0441\u0442\u0432\u043e": 3499,
  "\u0441\u0430": 3500,
  "\u2581transparence": 3501,
  "\u2581diversit\u00e9": 3502,
  "\u2581\u043e\u043a\u043e\u043b\u043e": 3503,
  "\u2581majorit\u00e9": 3504,
  "\u2581\u0433\u043e\u0441\u0443\u0434\u0430\u0440\u0441\u0442\u0432\u0435\u043d\u043d\u043e\u0439": 3505,
  "\u2581\u0437\u0430\u0434\u043e\u043b\u0436\u0435\u043d\u043d\u043e\u0441\u0442\u0438": 3506,
  "\u2581\u0432\u0441\u0442\u0440\u0435\u0447\u0438": 3507,
  "\u2581commerciales": 3508,
  "\u2581\u0431\u0435\u0437\u043e\u043f\u0430\u0441\u043d\u043e\u0441\u0442\u044c": 3509,
  "pa": 3510,
  "annexe": 3511,
  "\u2581Vienne": 3512,
  "\u2581\u0432\u043e\u0439\u043d\u044b": 3513,
  "\u2581per": 3514,
  "\u2581utilis\u00e9s": 3515,
  "\u2581surtout": 3516,
  "\u2581\u043f\u0440\u0435\u0434\u043b\u0430\u0433\u0430\u0435\u0442\u0441\u044f": 3517,
  "\u2581United": 3518,
  "\u2581\u0421\u043b\u0435\u0434\u0443\u0435\u0442": 3519,
  "\u2581\u0433\u043e\u043b\u043e\u0441\u043e\u0432\u0430\u043d\u0438\u044f": 3520,
  "\u2581\u0437\u0430\u043a\u043e\u043d\u043e\u0432": 3521,
  "\u2581annuel": 3522,
  "\u2581\u043f\u0440\u0438\u043d\u044f\u0442\u044b": 3523,
  "\u2581\u043f\u0440\u0435\u0434\u043b\u043e\u0436\u0435\u043d\u0438\u0439": 3524,
  "\u2581\u041a\u043e\u043d\u0441\u0442\u0438\u0442\u0443\u0446\u0438\u0438": 3525,
  "\u2581\u042e\u041d\u0424\u041f\u0410": 3526,
  "\u2581\u0434\u043e\u043c\u0430": 3527,
  "\u043c\u0435\u043d": 3528,
  "\u2581\u043f\u0440\u043e\u0434\u043e\u0432\u043e\u043b\u044c\u0441\u0442\u0432\u0435\u043d\u043d": 3529,
  "-2": 3530,
  "\u2581HCR": 3531,
  "\u2581\u0434\u0432\u0430\u0434\u0446\u0430\u0442\u044c": 3532,
  "\u2581\u043f\u0440\u0430\u0432\u0438\u0442\u0435\u043b\u044c\u0441\u0442\u0432\u0435\u043d\u043d": 3533,
  "\u2581statistique": 3534,
  "\u2581\u00e2ge": 3535,
  "\u2581Moyen": 3536,
  "\u2581\u043f\u0440\u043e\u0434\u043e\u043b\u0436\u0438\u0442\u0435\u043b\u044c\u043d": 3537,
  "\u2581alin\u00e9a": 3538,
  "\u2581auxquels": 3539,
  "pe": 3540,
  "\u2581valeurs": 3541,
  "\u0432\u0430\u043b": 3542,
  "\u2581\u0426": 3543,
  "\u0430\u0446\u0438\u044f": 3544,
  "importance": 3545,
  "\u2581\u043e\u0440\u0433\u0430\u043d\u0438\u0437\u0430\u0446\u0438\u044f\u043c": 3546,
  "\u2581Voir": 3547,
  "if": 3548,
  "\u2581Tableau": 3549,
  "\u2581\u043a\u0430\u0436\u0434\u044b\u0439": 3550,
  "\u2581d\u00e9finir": 3551,
  "\u2581\u0447\u0435\u0442\u044b\u0440\u0435": 3552,
  "\u2581milieu": 3553,
  "\u258175": 3554,
  "\u041e\u0412": 3555,
  "armes": 3556,
  "\u2581\u0434\u0430\u043b\u044c\u043d\u0435\u0439\u0448\u0435\u0433\u043e": 3557,
  "\u2581composition": 3558,
  "ies": 3559,
  "\u2581\u0432\u043a\u043b\u044e\u0447\u0430\u0435\u0442": 3560,
  "\u2581dette": 3561,
  "\u2581\u043a\u0430\u043a\u0438\u043c": 3562,
  "\u044d": 3563,
  "\u2581\u041f\u0440\u0435\u0434\u0441\u0442\u0430\u0432\u0438\u0442\u0435\u043b\u044c": 3564,
  "\u2581collecte": 3565,
  "\u2581\u0440\u0430\u0437\u0434\u0435\u043b": 3566,
  "\u0430\u0435\u0442": 3567,
  "gar": 3568,
  "\u2581\u043e\u0442\u043d\u043e\u0441\u044f\u0442\u0441\u044f": 3569,
  "\u2581quel": 3570,
  "\u2581\u043f\u043e\u0441\u0442\u0430\u043d\u043e\u0432\u043b\u044f\u0435\u0442": 3571,
  "\u2581recettes": 3572,
  "\u2581sp\u00e9cialis\u00e9es": 3573,
  "\u2581p\u00e9riodique": 3574,
  "\u2581\u043f\u0435\u0440\u0432\u043e\u0433\u043e": 3575,
  "ES": 3576,
  "\u2581rights": 3577,
  "\u2581\u0434\u043e\u043b\u0436\u043d\u043e\u0441\u0442\u044c": 3578,
  "\u2581\u043f\u0440\u0430\u0432\u0438\u043b\u043e": 3579,
  "\u2581\u041a\u043e\u043d\u0432\u0435\u043d\u0446\u0438\u044f": 3580,
  "\u0431\u044b": 3581,
  "\u2581\u00e9l\u00e9ment": 3582,
  "\u0416": 3583,
  "\u2581\u043f\u0440\u0435\u0434\u043e\u0441\u0442\u0430\u0432\u043b\u0435\u043d\u0438\u0438": 3584,
  "\u2581t\u00e2ches": 3585,
  "\u2581contact": 3586,
  "\u2581\u0443\u0447\u0430\u0441\u0442\u0438\u0435\u043c": 3587,
  "rai": 3588,
  "\u2581Cuba": 3589,
  "\u2581\u043d\u0430\u0439\u0442\u0438": 3590,
  "\u2581VII": 3591,
  "\u2581aient": 3592,
  "\u2581plein": 3593,
  "\u2581voudrais": 3594,
  "\u2581\u043a\u043e\u0442\u043e\u0440\u043e\u043c\u0443": 3595,
  "\u2581prescriptions": 3596,
  "our": 3597,
  "\u2581\u0440\u0435\u0448\u0435\u043d\u0438\u044e": 3598,
  "\u2581\u0431\u0435\u0434\u0441\u0442\u0432\u0438\u0439": 3599,
  "\u2581\u0445\u043e\u0437\u044f\u0439\u0441\u0442\u0432\u0430": 3600,
  "iens": 3601,
  "\u2581convention": 3602,
  "\u2581\u0416\u0435\u043d\u0435\u0432\u0435": 3603,
  "\u2581\u043e\u0446\u0435\u043d\u043a\u0430": 3604,
  "\u2581d\u00e9velopper": 3605,
  "\u2581\u043f\u0440\u0435\u0434\u043e\u0442\u0432\u0440\u0430\u0449\u0435\u043d\u0438\u044f": 3606,
  "\u2581travailler": 3607,
  "\u2581\u0438\u0441\u043a\u043b\u044e\u0447\u0435\u043d\u0438\u0435\u043c": 3608,
  "\u2581\u0440\u0430\u0441\u0448\u0438\u0440\u0435\u043d\u0438\u0435": 3609,
  "\u2581charg\u00e9s": 3610,
  "\u2581\u043e\u0447\u0435\u0440\u0435\u0434\u044c": 3611,
  "\u043b\u0435\u0442": 3612,
  "organisation": 3613,
  "\u2581prie": 3614,
  "\u0441\u0435": 3615,
  "\u2581classe": 3616,
  "\u2581\u044f\u0437\u044b\u043a\u0435": 3617,
  "adoption": 3618,
  "\u0443\u0447\u0430\u0441\u0442\u043d\u0438\u043a\u043e\u0432": 3619,
  "\u2581\u043c\u043e\u0436\u0435\u043c": 3620,
  "\u2581\u0430\u043a\u0442\u043e\u0432": 3621,
  "\u2581\u043f\u043e\u043a\u0430\u0437\u0430\u0442\u0435\u043b\u044c": 3622,
  "\u2581\u043a\u0430\u0434\u0440\u043e\u0432": 3623,
  "\u2581\u043c\u0435\u0441\u0442\u0435": 3624,
  "R\u00e9publique": 3625,
  "\u2581secours": 3626,
  "\u2581\u043e\u043f\u0430\u0441\u043d\u043e\u0441\u0442\u0438": 3627,
  "ga": 3628,
  "ECE": 3629,
  "\u2581\u0432\u043e\u0437\u0434\u0435\u0439\u0441\u0442\u0432\u0438\u0435": 3630,
  "\u2581vise": 3631,
  "\u2581pr\u00e9occupations": 3632,
  "\u2581d\u00e9chets": 3633,
  "25": 3634,
  "\u2581\u0434\u0435\u0439\u0441\u0442\u0432\u0438\u0442\u0435\u043b\u044c\u043d\u043e": 3635,
  "\u2581arabes": 3636,
  "\u2581\u043c\u043e\u0435\u0439": 3637,
  "assurer": 3638,
  "\u2581tr": 3639,
  "\u043f\u0438\u0441": 3640,
  "\u2581\u00e9changes": 3641,
  "\u2581publication": 3642,
  "\u2581traiter": 3643,
  "\u2581\u043c\u043d\u043e\u0439": 3644,
  "\u2581d\u00e9tenus": 3645,
  "\u2581\u041d\u0435\u043a\u043e\u0442\u043e\u0440\u044b\u0435": 3646,
  "\u2581\u0437\u0430\u043a\u043b\u044e\u0447\u0435\u043d\u0438\u0435": 3647,
  "\u2581route": 3648,
  "\u2581cr\u00e9dit": 3649,
  "\u00e9tat": 3650,
  "\u2581vues": 3651,
  "\u2581prochaine": 3652,
  "\u2581\u0443\u0432\u0435\u043b\u0438\u0447\u0435\u043d\u0438\u0435": 3653,
  "\u2581\u043f\u0440\u043e\u0441\u044c\u0431\u043e\u0439": 3654,
  "\u2581\u043d\u0435\u0434\u0430\u0432\u043d\u043e": 3655,
  "aime": 3656,
  "\u2581\u043a\u043e\u0434\u0435\u043a\u0441\u0430": 3657,
  "75": 3658,
  "objet": 3659,
  "\u2581affectation": 3660,
  "\u2581dispositif": 3661,
  "\u2581\u043f\u0440\u043e\u0434\u043e\u043b\u0436\u0430\u0435\u0442": 3662,
  "\u2581Z": 3663,
  "16": 3664,
  "\u2581Corr": 3665,
  "\u2581avantages": 3666,
  "\u2581\u0418\u0437\u0440\u0430\u0438\u043b\u044c": 3667,
  "\u0436\u0435\u043d": 3668,
  "\u2581quelle": 3669,
  "\u2581\u043d\u0430\u0440\u0443\u0448\u0435\u043d\u0438\u0439": 3670,
  "\u2581\u0441\u0443\u0434\u0435\u0431\u043d\u044b\u0445": 3671,
  "\u2581\u043c\u043e\u0433\u043b\u0430": 3672,
  "\u2581\u0434\u043e\u0433\u043e\u0432\u043e\u0440\u0430": 3673,
  "\u2581conclu": 3674,
  "\u2581\u043c\u043d\u0435\u043d\u0438\u044f": 3675,
  "\u2581\u043f\u0440\u0438\u043d\u044f\u0442\u044b\u0435": 3676,
  "\u2581\u0432\u0437\u043d\u043e\u0441\u044b": 3677,
  "\u2581commissions": 3678,
  "\u2581\u0438\u043c\u0443\u0449\u0435\u0441\u0442\u0432\u0430": 3679,
  "\u266a": 3680,
  "\u2581met": 3681,
  "\u2581\u043e\u0431\u044f\u0437\u0430\u043d\u043d\u043e\u0441\u0442\u0435\u0439": 3682,
  "\u00e9gard": 3683,
  "\u2581\u041f\u0430\u043a\u0442\u0430": 3684,
  "\u2581espace": 3685,
  "\u2581volontaires": 3686,
  "\u2581\u043f\u043e\u043f\u0440\u0430\u0432\u043a\u0438": 3687,
  "\u2581vuln\u00e9rables": 3688,
  "\u2581\u043e\u0441\u043d\u043e\u0432\u043d\u043e\u0439": 3689,
  "\u2581\u043c\u0435\u0445\u0430\u043d\u0438\u0437\u043c": 3690,
  "\u2581\u0414\u0435\u043f\u0430\u0440\u0442\u0430\u043c\u0435\u043d\u0442": 3691,
  "\u2581observer": 3692,
  "\u2581r\u00e9serves": 3693,
  "\u2581langues": 3694,
  "\u2581devons": 3695,
  "\u2581connexes": 3696,
  "\u2581\u0431\u043e\u043b\u044c\u0448\u0438\u043d\u0441\u0442\u0432\u043e": 3697,
  "\u2581\u0441\u0432\u044f\u0437\u0430\u043d\u043d\u043e\u0439": 3698,
  "\u2581\u0443\u0449\u0435\u0440\u0431": 3699,
  "\u2581\u043f\u043e\u0434\u0433\u043e\u0442\u043e\u0432\u043a\u0430": 3700,
  "\u043f\u0438": 3701,
  "\u2581\u043f\u0440\u0438\u043d\u044f\u043b\u0438": 3702,
  "\u2581ensuite": 3703,
  "\u2581commenc\u00e9": 3704,
  "\u2581intitul\u00e9e": 3705,
  "\u2581g\u00e9n\u00e9ralement": 3706,
  "\u2581\u0441\u0442\u0430\u043b\u0438": 3707,
  "\u2581\u0424\u0435\u0434\u0435\u0440\u0430\u0446\u0438\u0438": 3708,
  "\u2581\u0434\u043e\u0441\u0442\u0438\u0436\u0435\u043d\u0438\u0435": 3709,
  "\u2581Cependant": 3710,
  "\u044e\u0449\u0438\u0445\u0441\u044f": 3711,
  "\u2581\u043a\u043e\u043b\u0438\u0447\u0435\u0441\u0442\u0432\u043e": 3712,
  "\u2581fille": 3713,
  "\u2581\u043f\u0440\u0430\u0432\u0438\u0442\u0435\u043b\u044c\u0441\u0442\u0432\u0443": 3714,
  "\u2581\u0421\u0435\u0432\u0435\u0440\u043d\u043e\u0439": 3715,
  "\u2581cons\u00e9quent": 3716,
  "\u2581tirer": 3717,
  "\u2581\u0433\u0440\u0443\u043f\u043f\u0443": 3718,
  "\u2581\u0421\u0442\u0440": 3719,
  "\u2581\u043e\u0431\u043e\u0440\u0443\u0434\u043e\u0432\u0430\u043d\u0438\u044f": 3720,
  "\u2581lanc\u00e9": 3721,
  "\u2581\u043f\u0440\u0435\u0434\u0443\u0441\u043c\u043e\u0442\u0440\u0435\u043d\u043d\u044b": 3722,
  "\u2581\u043e\u0441\u0442\u0430\u0435\u0442\u0441\u044f": 3723,
  "\u2581Co": 3724,
  "\u2581Pro": 3725,
  "\u2581consommation": 3726,
  "\u2581populaire": 3727,
  "\u2581UN": 3728,
  "\u2581id\u00e9e": 3729,
  "\u00c9": 3730,
  "\u2581provenant": 3731,
  "\u2581\u041e\u0431\u044a\u0435\u0434\u0438\u043d\u0435\u043d\u043d": 3732,
  "\u2581effective": 3733,
  ".1)": 3734,
  "\u2581\u043f\u043e\u043b\u0438\u0442\u0438\u043a\u0443": 3735,
  "ay": 3736,
  "\u2581r\u00e9seaux": 3737,
  "_": 3738,
  "\u2581\u0430\u0441\u043f\u0435\u043a\u0442\u044b": 3739,
  "\u2581\u043c\u0430\u0442\u0435\u0440\u0438\u0430\u043b\u044b": 3740,
  "\u2581\u044d\u0442\u0438\u043c\u0438": 3741,
  "Herz\u00e9govine": 3742,
  "\u2581\u0420\u043e\u0441\u0441\u0438\u0439\u0441\u043a\u043e\u0439": 3743,
  "\u2581vis\u00e9es": 3744,
  "\u2581\u0440\u0443\u043a\u043e\u0432\u043e\u0434\u0441\u0442\u0432\u0430": 3745,
  "ack": 3746,
  "\u2581nationalit\u00e9": 3747,
  "\u2581conseil": 3748,
  "\u0435\u0432": 3749,
  "\u2581\u0441\u043e\u0441\u0442\u0430\u0432\u0435": 3750,
  "\u2581allant": 3751,
  "\u0432\u043e\u0434": 3752,
  "\u2581activement": 3753,
  "\u2581\u0438\u043d\u0432\u0430\u043b\u0438\u0434\u043e\u0432": 3754,
  "\u2581quarante": 3755,
  "\u0430\u0446\u0438\u0438": 3756,
  "03": 3757,
  "\u2581\u0441\u043e\u044e\u0437": 3758,
  "\u2581\u0440\u0430\u0437\u0440\u0430\u0431\u043e\u0442\u0430\u0442\u044c": 3759,
  "\u2581\u0440\u0435\u0436\u0438\u043c\u0430": 3760,
  "\u2581\u043e\u0441\u0443\u0449\u0435\u0441\u0442\u0432\u043b\u044f\u0435\u0442\u0441\u044f": 3761,
  "\u2581\u0442\u0435\u0445\u043d\u0438\u0447\u0435\u0441\u043a\u0438\u0445": 3762,
  "\u2581m\u00e9thode": 3763,
  "\u258168": 3764,
  "\u2581\u0411\u044e\u0440\u043e": 3765,
  "\u2581issue": 3766,
  "\u2581Rights": 3767,
  "13": 3768,
  "CP": 3769,
  "\u0410\u042f": 3770,
  "\u2581\u043f\u0440\u0435\u0434\u0441\u0442\u0430\u0432\u043b\u0435\u043d": 3771,
  "\u2581Institut": 3772,
  "\u2581\u0441\u043e\u043a\u0440\u0430\u0449\u0435\u043d\u0438\u0435": 3773,
  "\u2581\u0441\u043e\u043e\u0442\u0432\u0435\u0442\u0441\u0442\u0432\u0435\u043d\u043d\u043e": 3774,
  "\u2581d\u00e9lais": 3775,
  "\u2581rappelle": 3776,
  "/4": 3777,
  "\u2581400": 3778,
  "\u2581Tous": 3779,
  "Bas": 3780,
  "\u2581\u0418\u0437\u0440\u0430\u0438\u043b\u044f": 3781,
  "\u2581train": 3782,
  "\u2581circonstances": 3783,
  "\u2581pr\u00e9paration": 3784,
  "/20": 3785,
  "\u2581nuit": 3786,
  "\u2581\u043f\u043e\u0437\u0432\u043e\u043b\u044f\u0435\u0442": 3787,
  "\u2581th\u00e8me": 3788,
  "\u2581\u0441\u0442\u0440\u0430\u043d\u0430": 3789,
  "\u2581offre": 3790,
  "\u2581\u0410\u0444\u0440\u0438\u043a\u0430\u043d\u0441\u043a": 3791,
  "\u0435\u043a": 3792,
  "\u2581EN": 3793,
  "end": 3794,
  "\u2581\u0442\u0440\u0430\u043d\u0441\u043f\u043e\u0440\u0442\u0430": 3795,
  "WG": 3796,
  "\u044e\u0449\u0438\u0445": 3797,
  "\u2581destin\u00e9s": 3798,
  "\u2581\u0443\u0449\u0435\u0440\u0431\u0430": 3799,
  "\u2581agit": 3800,
  "\u2581Communaut\u00e9": 3801,
  "\u0431\u043e": 3802,
  "\u2581modifications": 3803,
  "\u2581\u0432\u043e\u0441\u0441\u0442\u0430\u043d\u043e\u0432\u043b\u0435\u043d\u0438\u044f": 3804,
  "\u2581\u043f\u043e\u0437\u0432\u043e\u043b\u0438\u0442": 3805,
  "\u2581\u043f\u0440\u0435\u0434\u043e\u0441\u0442\u0430\u0432\u0438\u0442\u044c": 3806,
  "\u2581\u0441\u0443\u0434\u0435\u0431\u043d\u043e\u0433\u043e": 3807,
  "\u2581\u0443\u0447\u0430\u0441\u0442\u0432\u043e\u0432\u0430\u0442\u044c": 3808,
  "\u2581\u041c\u043e": 3809,
  "\u2581\u043a\u043e\u043c\u0438\u0441\u0441\u0438\u044f": 3810,
  "\u2581etc": 3811,
  "\u2581Questions": 3812,
  "\u2581s\u00fbret\u00e9": 3813,
  "\u2581langue": 3814,
  "int": 3815,
  "US": 3816,
  "\u2581\u0432\u0430\u0436\u043d\u0443\u044e": 3817,
  "\u2581\u043d\u043e\u0440\u043c\u044b": 3818,
  "\u2581latine": 3819,
  "\u2581\u0441\u043e\u0440\u043e\u043a": 3820,
  "69": 3821,
  "\u0433\u0443": 3822,
  "\u2581\u043e\u0431\u0449\u0435\u0441\u0442\u0432\u0435\u043d\u043d\u043e\u0439": 3823,
  "\u2581avenir": 3824,
  "\u2581\u043d\u0435\u043c\u0443": 3825,
  "\u2581tiers": 3826,
  "\u2581\u0441\u043e\u0431\u0441\u0442\u0432\u0435\u043d\u043d\u043e\u0441\u0442\u0438": 3827,
  "\u2581fondamentales": 3828,
  "\u0448\u0438": 3829,
  "\u2581r\u00e9ponses": 3830,
  "\u2581\u0423\u0441\u0442\u0430\u0432\u0430": 3831,
  "\u2581\u0440\u0435\u0433\u0438\u043e\u043d\u0430\u043b\u044c\u043d\u044b\u0435": 3832,
  "\u2581pr\u00e9occup\u00e9": 3833,
  "\u0438\u043c\u0438": 3834,
  "per": 3835,
  "\u2581global": 3836,
  "\u043f\u0430\u0441": 3837,
  "\u2581\u0440\u043e\u0441\u0442": 3838,
  "\u2581r\u00e9partition": 3839,
  "\u2581\u043a\u043e\u043c\u043f\u0435\u043d\u0441\u0430\u0446\u0438\u0438": 3840,
  "\u258110.": 3841,
  "\u2581Son": 3842,
  "\u0451\u0440": 3843,
  "\u2581\u043e\u0431\u044b\u0447\u043d\u043e": 3844,
  "\u2581rurales": 3845,
  "\u2581\u041f\u043e\u0441\u043a\u043e\u043b\u044c\u043a\u0443": 3846,
  "\u2581\u0438\u0441\u043f\u044b\u0442\u0430\u043d\u0438\u044f": 3847,
  "\u2581emp\u00eacher": 3848,
  "\u2581interdiction": 3849,
  "\u0435\u0434": 3850,
  "\u2581\u043f\u0440\u0435\u0434\u0443\u043f\u0440\u0435\u0436\u0434\u0435\u043d\u0438\u044e": 3851,
  "\u2581\u0432\u043e\u0437\u0440\u0430\u0441\u0442\u0435": 3852,
  "mo": 3853,
  "\u2581\u043a\u0443\u043b\u044c\u0442\u0443\u0440\u043d\u044b\u0445": 3854,
  "\u2581\u00e9coles": 3855,
  "\u2581feu": 3856,
  "\u2581essentiellement": 3857,
  "\u0451\u0442": 3858,
  "\u2581\u043c\u043e\u043c\u0435\u043d\u0442\u0430": 3859,
  "\u2581\u043f\u0440\u0430\u0432\u043e\u043c": 3860,
  "\u2581\u0433\u0443\u043c\u0430\u043d\u0438\u0442\u0430\u0440\u043d\u043e\u0433\u043e": 3861,
  "\u0438\u0440\u043e\u0432\u0430\u0442\u044c": 3862,
  "\u2581\u043f\u0440\u043e\u0442\u044f\u0436\u0435\u043d\u0438\u0438": 3863,
  "\u2581\u043d\u0430\u0448\u0438\u0445": 3864,
  "he": 3865,
  "\u2581\u0414\u0435": 3866,
  "\u2581\u0432\u0430\u0436\u043d\u044b\u043c": 3867,
  "\u2581\u043c\u0438\u043d\u0443\u0442": 3868,
  "\u2581d\u00e9mocratie": 3869,
  "\u2581cycle": 3870,
  "\u2581auraient": 3871,
  "\u0432\u044b": 3872,
  "\u0447\u043b\u0435\u043d\u0430\u043c": 3873,
  "\u2581pertinents": 3874,
  "\u0448\u0443": 3875,
  "\u2581entreprise": 3876,
  "\u043e\u043b": 3877,
  "\u2581\u0442\u0438\u043f\u0430": 3878,
  "\u2581\u0432\u0435\u0434\u0435\u043d\u0438\u044f": 3879,
  "\u2581\u00e9quitable": 3880,
  "\u2581d\u00e9plac\u00e9es": 3881,
  "\u2581sud": 3882,
  "\u2581essai": 3883,
  "\u2581financer": 3884,
  "\u2581\u041d\u0430\u043f\u0440\u0438\u043c\u0435\u0440": 3885,
  "\u00e9es": 3886,
  "\u2581indique": 3887,
  "\u2581particuliers": 3888,
  "\u2581FNUAP": 3889,
  "\u2581constitutionnel": 3890,
  ".29": 3891,
  "\u2581\u0438\u043c\u0435\u044e\u0449\u0438\u0445\u0441\u044f": 3892,
  "\u043d\u044e": 3893,
  "\u2581internes": 3894,
  "\u2581presse": 3895,
  "\u2581\u0447\u0435\u0441\u0442\u044c": 3896,
  "-3": 3897,
  "\u2581genre": 3898,
  "/5": 3899,
  "\u2581continuent": 3900,
  "\u2581\u0432\u043e\u0437\u0440\u0430\u0441\u0442\u0430": 3901,
  "67": 3902,
  "\u2581\u043e\u0433\u0440\u0430\u043d\u0438\u0447\u0435\u043d\u0438\u044f": 3903,
  "\u2581\u043c\u043e\u043d\u0438\u0442\u043e\u0440\u0438\u043d\u0433\u0430": 3904,
  "\u2581\u0445\u043e\u0447\u0435\u0448\u044c": 3905,
  "\u2581\u0430\u0434\u043c\u0438\u043d\u0438\u0441\u0442\u0440\u0430\u0442\u0438\u0432\u043d": 3906,
  "\u2581\u0438\u0442\u043e\u0433\u0430\u043c": 3907,
  "/61/": 3908,
  "\u043f\u043e\u0434": 3909,
  "35": 3910,
  "\u2581\u043a\u0440\u0430\u0439\u043d\u0435\u0439": 3911,
  "\u2581\u043f\u043e\u0434\u0434\u0435\u0440\u0436\u0438\u0432\u0430\u0442\u044c": 3912,
  "\u2581mariage": 3913,
  "\u2581\u043e\u043f\u044b\u0442\u0430": 3914,
  "\u2581connaissance": 3915,
  "\u2581\u043e\u0442\u043d\u043e\u0448\u0435\u043d\u0438\u0435": 3916,
  "\u2581adjoint": 3917,
  "\u2581\u0424\u043e\u043d\u0434": 3918,
  "\u2581\u043d\u0430\u043f\u0440\u0430\u0432\u043b\u0435\u043d\u0438\u0438": 3919,
  "\u2581r\u00e9glementation": 3920,
  "\u2581\u0438\u043d\u0442\u0435\u0440\u0435\u0441": 3921,
  "\u2581\u0432\u043a\u043b\u044e\u0447\u0430\u0442\u044c": 3922,
  "\u2581effectifs": 3923,
  "\u2581esprit": 3924,
  "\u2581\u043f\u043e\u0434\u0442\u0432\u0435\u0440\u0436\u0434\u0430\u0435\u0442": 3925,
  "\u2581\u041f\u0440\u0438\u043b\u043e\u0436\u0435\u043d\u0438\u0435": 3926,
  "\u2581rester": 3927,
  "\u00e9limination": 3928,
  "\u2581utilis\u00e9": 3929,
  "tra": 3930,
  "85": 3931,
  "\u2581\u0437\u0430\u0442\u0435\u043c": 3932,
  "IN": 3933,
  "\u2581contient": 3934,
  "\u2581d\u00e9velopp\u00e9s": 3935,
  "\u2581\u0447\u0435\u0442\u044b\u0440\u0435\u0445": 3936,
  "\u0441\u0442\u0430\u0442\u044c\u044f": 3937,
  "\u043b\u0435\u043d\u0438\u0435": 3938,
  "\u2581\u043f\u0440\u0435\u0434\u043f\u0440\u0438\u044f\u0442\u0438\u0439": 3939,
  "\u2581principalement": 3940,
  "\u043f\u0430\u0434": 3941,
  "\u2581http": 3942,
  "\u2581\u043f\u043e\u0434\u0434\u0435\u0440\u0436\u043a\u0430": 3943,
  "\u2581\u043e\u0441\u043e\u0431\u043e": 3944,
  "\u2581\u0432\u044b\u0441\u043e\u043a\u043e": 3945,
  "\u2581fourniture": 3946,
  "\u2581\u041d\u0435\u043e\u0431\u0445\u043e\u0434\u0438\u043c\u043e": 3947,
  "\u2581comp\u00e9tentes": 3948,
  "\u2581d\u00e9fis": 3949,
  "SC": 3950,
  "\u044c\u044e": 3951,
  "\u2581\u043a\u043e\u0440": 3952,
  "\u2581\u0437\u043d\u0430\u043d\u0438\u0439": 3953,
  "\u2581Du": 3954,
  "\u2581\u0422\u0430\u0431\u043b\u0438\u0446\u0430": 3955,
  "\u2581\u0434\u0443\u043c\u0430\u043b": 3956,
  "\u2581\u043f\u043e\u0441\u0442\u043e\u044f\u043d\u043d\u043e": 3957,
  "\u2581handicap\u00e9es": 3958,
  "neuvi\u00e8me": 3959,
  "\u2581\u0443\u0447\u0438\u0442\u044b\u0432\u0430\u0442\u044c": 3960,
  "\u2581\u041a\u043e\u043d\u0441\u0443\u043b\u044c\u0442\u0430\u0442\u0438\u0432\u043d\u044b\u0439": 3961,
  "-4": 3962,
  "\u20ac": 3963,
  "\u2581\u043b\u0438\u0446\u0430\u043c\u0438": 3964,
  "\u043a\u0430\u0437": 3965,
  "\u2581\u0441\u0442\u0430\u0431\u0438\u043b\u044c\u043d\u043e\u0441\u0442\u0438": 3966,
  "\u2581prenantes": 3967,
  "\u2581\u043d\u0430\u0445\u043e\u0434\u044f\u0442\u0441\u044f": 3968,
  "ap": 3969,
  "\u2581appropri\u00e9es": 3970,
  "\u2581\u043f\u0440\u043e\u0432\u0435\u0440\u043a\u0438": 3971,
  "\u2581\u0412\u0430\u043c": 3972,
  "ti": 3973,
  "\u2581\u043f\u0440\u044f\u043c\u043e": 3974,
  "\u2581compl\u00e8te": 3975,
  "\u2581ministres": 3976,
  "ry": 3977,
  "\u2581\u0434\u043e\u043a\u043b\u0430\u0434\u0447\u0438\u043a\u0430": 3978,
  "\u2581lumi\u00e8re": 3979,
  "\u2581\u0441\u0442\u0430\u0442\u0443\u0441\u0430": 3980,
  "\u2581\u0437\u0430\u043b\u0435": 3981,
  "\u2581\u043f\u0440\u0435\u0434\u0441\u0442\u0430\u0432\u043b\u0435\u043d\u0438\u0435": 3982,
  "\u2581\u043d\u0435\u0441\u043a\u043e\u043b\u044c\u043a\u0438\u0445": 3983,
  "\u2581\u0431\u0443\u0434\u0443": 3984,
  "/3": 3985,
  "\u2581cr\u00e9dits": 3986,
  "\u2581\u0441\u0442\u0430\u0442\u0443\u0441": 3987,
  "\u2581\u043f\u0440\u0435\u0434\u0443\u0441\u043c\u0430\u0442\u0440\u0438\u0432\u0430\u044e\u0449": 3988,
  "\u2581\u043c\u0430\u043d\u0434\u0430\u0442": 3989,
  "\u2581\u0432\u044b\u043f\u043e\u043b\u043d\u0435\u043d\u0438\u044e": 3990,
  "\u2581\u0414\u0435\u043f\u0430\u0440\u0442\u0430\u043c\u0435\u043d\u0442\u0430": 3991,
  "\u2581\u0432\u044b\u043f\u043e\u043b\u043d\u0435\u043d\u0438\u0435": 3992,
  "\u2581visite": 3993,
  "\u2581sp\u00e9ciaux": 3994,
  "ha": 3995,
  "\u2581\u043e\u043f\u0440\u0435\u0434\u0435\u043b\u0438\u0442\u044c": 3996,
  "\u2581Demande": 3997,
  "\u2581Kowe\u00eft": 3998,
  "\u2581\u043e\u043f\u0440\u0435\u0434\u0435\u043b\u0435\u043d\u0438\u0435": 3999,
  "\u2581efficacement": 4000,
  "\u25811999,": 4001,
  "\u2581\u0437\u0430\u043a\u043e\u043d\u043e\u043c": 4002,
  "\u2581rec": 4003,
  "\u2581\u0441\u0431\u043e\u0440\u0430": 4004,
  "\u0431\u0435": 4005,
  "\u2581\u0442\u0430\u043a\u0430\u044f": 4006,
  "\u2581imm\u00e9diatement": 4007,
  "\u0438\u043a": 4008,
  "\u0437\u0438": 4009,
  "\u2581maintenir": 4010,
  "\u2581WP": 4011,
  "\u2581\u0440\u0430\u0437\u0434\u0435\u043b\u0435": 4012,
  "\u2581reconnu": 4013,
  "\u2581meilleur": 4014,
  "\u2581\u0444\u0430\u043a\u0442\u043e\u0440\u043e\u0432": 4015,
  "ous": 4016,
  "Est": 4017,
  "14": 4018,
  "\u0449\u0430": 4019,
  "\u2581\u041d\u0410": 4020,
  "\u2581int\u00e9gr\u00e9e": 4021,
  "\u25811989": 4022,
  "\u2581ouvert": 4023,
  "\u2581\u0447\u0438\u0441\u043b\u0443": 4024,
  "1,": 4025,
  "\u2581\u043d\u0430\u0441\u0442\u043e\u044f\u0449\u0435\u043c": 4026,
  "\u2581souligne": 4027,
  "\u2581largement": 4028,
  "\u2581administratif": 4029,
  "\u2581\u0430\u043a\u0442\u0438\u0432\u043d\u043e": 4030,
  "\u2581(20": 4031,
  "\u2581\u0438\u0441\u043f\u043e\u043b\u044c\u0437\u043e\u0432\u0430\u043d\u0438\u044e": 4032,
  "\u2581\u043f\u043e\u043b\u043d\u043e\u043c": 4033,
  "\u2581\u0418\u0440\u0430\u043d": 4034,
  "\u0441\u043a\u043e\u043c": 4035,
  "\u2581Ex": 4036,
  "abord": 4037,
  "\u2581\u0431\u0430\u0437\u044b": 4038,
  "\u2581\u0441\u043e\u0433\u043b\u0430\u0441\u0438\u044f": 4039,
  "ated": 4040,
  "\u2581\u042e\u0436\u043d\u043e\u0439": 4041,
  "\u2581\u0438\u0441\u043a\u043b\u044e\u0447\u0438\u0442\u0435\u043b\u044c\u043d\u043e": 4042,
  "\u2581\u0430\u0441\u043f\u0435\u043a\u0442\u043e\u0432": 4043,
  "\u042b": 4044,
  "\u2581appartenant": 4045,
  "29": 4046,
  "\u2581requ\u00e9rant": 4047,
  "\u2581Force": 4048,
  "\u2581(2001)": 4049,
  "\u2581\u00e9tudier": 4050,
  "\u043c\u0438\u043c\u043e": 4051,
  "\u2581\u0438\u043d\u0442\u0435\u0440\u0435\u0441\u043e\u0432": 4052,
  "37": 4053,
  "\u2581\u0441\u043e\u0442\u0440\u0443\u0434\u043d\u0438\u043a\u0438": 4054,
  "der": 4055,
  "\u043c\u044b": 4056,
  "\u043d\u043e\u0432": 4057,
  "ud": 4058,
  "\u2581Mexique": 4059,
  "\u2581\u0442\u0440\u0435\u0431\u0443\u0435\u0442\u0441\u044f": 4060,
  "\u2581bas": 4061,
  "\u2581dirigeants": 4062,
  "\u2581\u0437\u0430\u0432\u0435\u0440\u0448\u0435\u043d\u0438\u044f": 4063,
  "ement": 4064,
  "huiti\u00e8me": 4065,
  "\u2581\u0437\u0430\u044f\u0432\u0438\u043b": 4066,
  "\u2581\u0415\u0421": 4067,
  "\u2581contraire": 4068,
  "\u2581\u043f\u0440\u043e\u0431\u043b\u0435\u043c\u0430": 4069,
  "\u2581version": 4070,
  "09": 4071,
  ".29/": 4072,
  "\u2581lieux": 4073,
  "18": 4074,
  "\u2581\u0433\u043e\u0432\u043e\u0440\u0438\u043b": 4075,
  "\u2581souhaite": 4076,
  "app": 4077,
  "\u2581\u043f\u0440\u0438\u0447\u0435\u043c": 4078,
  "\u2581\u0432\u043e\u043e\u0440\u0443\u0436\u0435\u043d\u0438\u0439": 4079,
  "son": 4080,
  "\u2581c\u00f4t\u00e9": 4081,
  "\u2581convenu": 4082,
  "\u2581\u0437\u0430\u0432\u0438\u0441\u0438\u043c\u043e\u0441\u0442\u0438": 4083,
  "\u0436\u043d": 4084,
  "r\u00e9": 4085,
  "\u2581cependant": 4086,
  "go": 4087,
  "\u2581actuel": 4088,
  "\u25812)": 4089,
  "\u2581\u041c\u0435\u0436\u0434\u0443\u043d\u0430\u0440\u043e\u0434\u043d\u0430\u044f": 4090,
  "\u2581\u0447\u0435\u0442\u043a\u043e": 4091,
  "ities": 4092,
  "\u2581\u0434\u0430\u0442\u044c": 4093,
  "ts": 4094,
  "\u2581\u0421\u043e\u043c\u0430\u043b\u0438": 4095,
  "\u2581\u0443\u043b\u0443\u0447\u0448\u0435\u043d\u0438\u044e": 4096,
  "ig": 4097,
  "\u2581r\u00e9guli\u00e8rement": 4098,
  "\u2581consid\u00e9ration": 4099,
  "07": 4100,
  "\u2581\u0440\u0430\u0431\u043e\u0442\u0430\u0442\u044c": 4101,
  "\u2581\u044f\u0434\u0435\u0440\u043d\u044b\u0445": 4102,
  "\u2581\u043f\u043e\u043b\u0438\u0442\u0438\u043a\u0435": 4103,
  "\u2581pr\u00e9sent\u00e9es": 4104,
  "\u2581t\u00eate": 4105,
  "\u2581recevoir": 4106,
  "\u2581essais": 4107,
  "\u2581derniers": 4108,
  "\u2581iv": 4109,
  "\u2581directeurs": 4110,
  "\u2581religion": 4111,
  "\u2581trouv\u00e9": 4112,
  "\u2581figurent": 4113,
  "\u2581\u0440\u0430\u0432\u043d\u043e": 4114,
  "4.": 4115,
  "\u00e9nergie": 4116,
  "\u2581\u0432\u043a\u043b\u044e\u0447\u0435\u043d\u0438\u044f": 4117,
  "\u2581fronti\u00e8res": 4118,
  "\u2581\u043e\u0440\u0433\u0430\u043d\u0438\u0437\u0430\u0446\u0438\u0435\u0439": 4119,
  "\u2581\u0434\u043e\u043a\u043b\u0430\u0434\u0443": 4120,
  "\u2581\u043d\u0430\u0445\u043e\u0434\u044f\u0449\u0438\u0445\u0441\u044f": 4121,
  "\u2581\u0441\u0440\u043e\u043a\u0430": 4122,
  "\u2581\u0446\u0435\u043d\u0442\u0440": 4123,
  "\u0447\u0443": 4124,
  "\u2581\u0414\u0435\u043c\u043e\u043a\u0440\u0430\u0442\u0438\u0447\u0435\u0441\u043a\u043e\u0439": 4125,
  "\u2581\u0436\u0435\u043d\u0449\u0438\u043d\u0430\u043c": 4126,
  "\u2581di": 4127,
  "\u2581\u043b\u044e\u0431\u043e\u0433\u043e": 4128,
  "\u2581D\u00e9cide": 4129,
  "\u0440\u044b": 4130,
  "\u0435\u0433\u043e": 4131,
  "\u258173": 4132,
  "\u2581\u0447\u0430\u0441\u0442\u043d\u043e\u0433\u043e": 4133,
  "\u2581\u0443\u0441\u0442\u0430\u043d\u043e\u0432\u043b\u0435\u043d\u0438\u044f": 4134,
  "\u0448\u043d": 4135,
  "\u2581pourra": 4136,
  "88": 4137,
  "\u2581sait": 4138,
  "\u2581o": 4139,
  "\u25811)": 4140,
  "\u2581soutenir": 4141,
  "06": 4142,
  "\u2581\u043c\u0438\u043d\u0438\u0441\u0442\u0435\u0440\u0441\u0442\u0432\u0430": 4143,
  "\u2581repr\u00e9sente": 4144,
  "\u043e\u0441": 4145,
  "27": 4146,
  "\u2581\u0441\u0440\u043e\u043a\u0438": 4147,
  "enfant": 4148,
  "\u2581Kosovo": 4149,
  "\u2581\u043f\u0440\u0430\u0432\u043e\u0432\u044b\u0445": 4150,
  "\u2581consid\u00e8re": 4151,
  "mer": 4152,
  "\u2581soumettre": 4153,
  "\u2581\u0438\u0437\u043c\u0435\u043d\u0438\u0442\u044c": 4154,
  "\u2581consid\u00e9r\u00e9": 4155,
  "\u2581\u0441\u0443\u0434\u0435\u0431\u043d\u043e\u0439": 4156,
  "\u2581concern\u00e9es": 4157,
  "\u2581UNICEF": 4158,
  "\u2581encourage": 4159,
  "\u2581peines": 4160,
  "\u2581\u043e\u0441\u0443\u0449\u0435\u0441\u0442\u0432\u043b\u0435\u043d\u0438\u0435\u043c": 4161,
  "\u0430\u043a": 4162,
  "\u2581\u0441\u0430\u043c\u043e\u043c": 4163,
  "\u2581\u0442\u0443": 4164,
  "\u0441\u043e\u043e\u0442\u0432\u0435\u0442\u0441\u0442\u0432\u0443\u044e\u0449\u0435\u0433\u043e": 4165,
  "\u2581pertes": 4166,
  "\u2581\u0441\u0443\u0434\u0435\u0439": 4167,
  "\u2581\u041a\u043e\u043c\u0438\u0441\u0441\u0438\u0435\u0439": 4168,
  "\u2581fallait": 4169,
  "\u2581biais": 4170,
  "\u2581racisme": 4171,
  "\u2581physique": 4172,
  "efficacit\u00e9": 4173,
  "\u2581vient": 4174,
  "\u2581Afghanistan": 4175,
  "\u2581\u0441\u044e\u0434\u0430": 4176,
  "\u2581600": 4177,
  "Am\u00e9rique": 4178,
  "\u2581\u0431\u043e\u043b\u044c\u0448\u0435\u0439": 4179,
  "45": 4180,
  "\u2581\u0441\u0435\u043c\u044c\u0435": 4181,
  "\u2581\u044d\u0444\u0444\u0435\u043a\u0442\u0438\u0432\u043d\u043e\u0439": 4182,
  "\u0444\u0443\u043d\u043a\u0446\u0438\u043e\u043d\u0438\u0440\u043e\u0432\u0430\u043d\u0438\u044f": 4183,
  "\u2581\u041e\u0431": 4184,
  "\u2581\u0437\u043d\u0430\u0442\u044c": 4185,
  "\u2581devaient": 4186,
  "\u2581\u0441\u0432\u043e\u0431\u043e\u0434": 4187,
  "\u2581have": 4188,
  "\u2581\u0440\u0435\u0447\u044c": 4189,
  "\u2581\u041b": 4190,
  "\u043a\u0441": 4191,
  "\u2581\u0447\u0430\u0441\u0442\u044c\u044e": 4192,
  "\u2581\u0440\u0430\u0437\u0432\u0438\u0442\u0438\u0438": 4193,
  "septi\u00e8me": 4194,
  "\u2581poursuite": 4195,
  "\u2581\u0441\u0435\u043a\u0440\u0435\u0442\u0430\u0440\u044e": 4196,
  "cadre": 4197,
  "\u2581mod\u00e8le": 4198,
  "\u0436\u0430\u043b": 4199,
  "\u2581\u00e9ch\u00e9ant": 4200,
  "\u2581recrutement": 4201,
  "\u2581appel\u00e9": 4202,
  "\u2581op\u00e9rationnelles": 4203,
  "95": 4204,
  "\u2581minimum": 4205,
  "\u0437\u043d": 4206,
  "\u0447\u043b\u0435\u043d\u0430\u043c\u0438": 4207,
  "\u2581grave": 4208,
  "\u2581assez": 4209,
  "\u2581dix": 4210,
  "\u2581\u043f\u043e\u0442\u0435\u043d\u0446\u0438\u0430\u043b": 4211,
  "\u2581\u0437": 4212,
  "39": 4213,
  "\u2581\u0441\u0442\u0430\u0442\u0435\u0439": 4214,
  "\u2581\u0441\u043b\u043e\u0432\u043e": 4215,
  "26": 4216,
  "\u043b\u0443\u0447": 4217,
  "\u2581\u043e\u0431\u0435\u0441\u043f\u0435\u0447\u0438\u0432\u0430\u0435\u0442": 4218,
  "\u2581limit\u00e9e": 4219,
  "\u2581r\u00e9gler": 4220,
  "CONF": 4221,
  "\u2581human": 4222,
  "34": 4223,
  "\u2581entrepris": 4224,
  "\u2581\u0441\u0442\u0430\u043b\u043e": 4225,
  "\u2581\u0446\u0435\u043d\u0442\u0440\u043e\u0432": 4226,
  "\u2581reconnaissance": 4227,
  "\u2581\u0434\u0435\u043b\u0435\u0433\u0430\u0446\u0438\u0439": 4228,
  "\u2581coop\u00e9rer": 4229,
  "\u2581\u0441\u043e\u0442\u0440\u0443\u0434\u043d\u0438\u0447\u0430\u0442\u044c": 4230,
  "\u2581mauvais": 4231,
  "\u0434\u044b": 4232,
  "\u2581\u043f\u043e\u043b\u0438\u0442\u0438\u043a\u0430": 4233,
  "\u2581\u044d\u043b\u0435\u043c\u0435\u043d\u0442\u043e\u0432": 4234,
  "\u2581Avec": 4235,
  "\u2581interm\u00e9diaire": 4236,
  "19": 4237,
  "\u2581commission": 4238,
  "\u043d\u0430\u043f\u0440\u0438\u043c\u0435\u0440": 4239,
  "\u2581servir": 4240,
  "7": 4241,
  "\u2581\u0443\u0441\u043b\u043e\u0432\u0438\u0438": 4242,
  "\u2581men\u00e9e": 4243,
  "\u2581\u0432\u043e\u0434\u044b": 4244,
  "\u2581\u043d\u0430\u0443\u0447\u043d\u043e": 4245,
  "\u2581Loi": 4246,
  "\u2581\u043d\u0430\u043b\u0438\u0447\u0438\u0435": 4247,
  "\u2581\u0433\u0440\u0430\u0436\u0434\u0430\u043d\u0441\u043a\u043e\u0439": 4248,
  "\u044e\u0449\u0438\u0435\u0441\u044f": 4249,
  "\u0431\u0443": 4250,
  "\u2581\u0440\u0430\u0437\u0440\u0430\u0431\u043e\u0442\u043a\u0443": 4251,
  "\u2581trait": 4252,
  "\u2581\u0431\u043e\u043b\u044c\u0448\u043e\u0435": 4253,
  "ty": 4254,
  "\u2581+": 4255,
  "\u2581\u0441\u0443\u043c\u043c\u044b": 4256,
  "lic": 4257,
  "55": 4258,
  "\u2581\u043f\u0440\u0435\u0434\u0432\u0430\u0440\u0438\u0442\u0435\u043b\u044c\u043d\u043e\u0439": 4259,
  "\u2581doute": 4260,
  "\u0442\u0440\u043e": 4261,
  "\u2581\u043e\u0441\u043d\u043e\u0432\u043d\u043e\u043c": 4262,
  "om": 4263,
  "\u0435\u0445\u0430": 4264,
  "28": 4265,
  "\u2581\u043f\u0440\u0438\u0432\u0435\u0441\u0442\u0438": 4266,
  "\u2581Association": 4267,
  "-19": 4268,
  "36": 4269,
  "\u2581limites": 4270,
  "\u2581\u0434\u0430\u043d\u043d\u044b\u0439": 4271,
  "\u043a\u043e\u043d": 4272,
  "\u2581\u043f\u0440\u043e\u0441\u0438\u043b\u0430": 4273,
  "\u2581\u0421\u0435\u0439\u0447\u0430\u0441": 4274,
  "no": 4275,
  "\u2581concurrence": 4276,
  "ell": 4277,
  "\u2581\u0438\u0433\u0440\u0430\u0442\u044c": 4278,
  "\u2581\u0426\u0435\u043d\u0442\u0440\u0430\u043b\u044c\u043d\u043e\u0439": 4279,
  "\u2581\u0448\u0435\u0441\u0442\u0438": 4280,
  "\u0435\u043c\u044b\u0445": 4281,
  "\u2581\u0433\u0440\u0443\u0437\u043e\u0432": 4282,
  "/6": 4283,
  "\u2581suivante": 4284,
  "\u2581Human": 4285,
  "\u2581\u0432\u0435\u0441\u0442\u0438": 4286,
  "\u2581\u0440\u0435\u0433\u0443\u043b\u0438\u0440\u043e\u0432\u0430\u043d\u0438\u044f": 4287,
  "\u2581\u043f\u043e\u0432\u0435\u0441\u0442\u043a\u0443": 4288,
  "\u2581\u043f\u0440\u0435\u0434\u0441\u0442\u0430\u0432\u043b\u044f\u044e\u0442": 4289,
  "\u2581\u043f\u0435\u0440\u0432\u044b\u0439": 4290,
  "\u2581\u0444\u0438\u043d\u0430\u043d\u0441\u0438\u0440\u043e\u0432\u0430\u043d\u0438\u0435": 4291,
  "94": 4292,
  "\u2581\u043f\u0440\u0438\u043d\u044f\u0442\u0438\u0438": 4293,
  "\u0430\u043b\u0430": 4294,
  "\u2581su": 4295,
  "\u2581vente": 4296,
  "33": 4297,
  "\u2581\u042e\u041d\u0415\u041f": 4298,
  "\u2581\u0441\u0440\u0435\u0434\u0441\u0442\u0432\u0430\u043c\u0438": 4299,
  "\u00e9tablissement": 4300,
  "\u2581\u043a\u0430\u0441\u0430\u044e\u0449\u0438\u043c\u0441\u044f": 4301,
  "iv": 4302,
  "\u2581\u041a\u043e\u043d": 4303,
  "\u2581\u043a\u043e\u043c\u043f\u0430\u043d\u0438\u0438": 4304,
  "\u2581\u0441\u043a\u043e\u0440\u0435\u0435": 4305,
  "intention": 4306,
  "\u2581libre": 4307,
  "\u2581\u043b\u044e\u0431\u044b\u0435": 4308,
  "\u2581\u0434\u043e\u0440\u043e\u0433": 4309,
  "\u2581pr\u00e9paratoire": 4310,
  "\u2581longtemps": 4311,
  "\u2581\u043f\u043e\u043b\u0430": 4312,
  "ary": 4313,
  "\u2581corps": 4314,
  "\u2581\u043d\u0435\u0437\u0430\u0432\u0438\u0441\u0438\u043c\u043e": 4315,
  "\u0432\u0435\u043d\u043d\u044b\u0435": 4316,
  "ak": 4317,
  "\u0441\u043a\u043e\u0435": 4318,
  "\u2581\u0442\u0440\u0435\u0431\u043e\u0432\u0430\u043d\u0438\u044f\u043c": 4319,
  "\u2581continu\u00e9": 4320,
  "\u2581\u043d\u0435\u0437\u0430\u0432\u0438\u0441\u0438\u043c\u043e\u0441\u0442\u0438": 4321,
  "\u2581\u0440\u0443\u043a\u043e\u0432\u043e\u0434\u044f\u0449\u0438\u0435": 4322,
  "\u2581\u0434\u043e\u043b\u044f": 4323,
  "\u2581vois": 4324,
  "\u2581fournis": 4325,
  "\u2581garde": 4326,
  "\u2581\u043f\u0440\u0438\u043d\u0438\u043c\u0430\u044f": 4327,
  "/19": 4328,
  "\u2581\u0441\u0432\u043e\u0438\u043c\u0438": 4329,
  "\u2581\u00e9crit": 4330,
  "\u2581\u041f\u0440\u043e\u0441\u0442\u043e": 4331,
  "\u2581\u043e\u0431\u044f\u0437\u0430\u0442\u0435\u043b\u044c\u0441\u0442\u0432\u043e": 4332,
  "97": 4333,
  "\u2581laisser": 4334,
  "\u2581\u043f\u043e\u043b\u044c\u0437\u0443": 4335,
  "\u2581substances": 4336,
  "\u2581\u0437\u0430\u0441\u0435\u0434\u0430\u043d\u0438\u044f\u0445": 4337,
  "\u2581\u0426\u0435\u043b\u0435\u0432\u043e\u0439": 4338,
  "\u2581moyenne": 4339,
  "\u2581pleine": 4340,
  "\u0441\u043e\u043d": 4341,
  "\u2581infraction": 4342,
  "\u2581unique": 4343,
  "\u2581\u043c\u0438\u0440\u043d\u043e\u0433\u043e": 4344,
  "\u2581Pakistan": 4345,
  "\u2581Allemagne": 4346,
  "\u2581institutionnel": 4347,
  "\u258169": 4348,
  "\u2581climat": 4349,
  "\u2581\u043a\u043e\u043d\u0435\u0446": 4350,
  "\u2581change": 4351,
  "\u2581\u0434\u0438": 4352,
  "\u2581\u0442\u0430\u043a\u0438\u043c\u0438": 4353,
  "\u0434\u0435\u043b": 4354,
  "\u2581\u043e\u0434\u043d\u0443": 4355,
  "\u044c\u0435": 4356,
  "\u2581instance": 4357,
  "\u2581\u0440\u0435\u0433\u0438\u0441\u0442\u0440\u0430\u0446\u0438\u0438": 4358,
  "\u2581\u041a\u0430\u0440\u0438\u0431\u0441\u043a": 4359,
  "\u2581\u043f\u0435\u0440\u0441\u043e\u043d\u0430\u043b": 4360,
  "\u2581voyage": 4361,
  "\u2581complet": 4362,
  "\u2581pr\u00e9sidence": 4363,
  "\u2581maladies": 4364,
  "\u2581semaine": 4365,
  "\u2581humain": 4366,
  "\u2581\u0432\u0438\u0434\u044b": 4367,
  "\u2581science": 4368,
  "\u0432\u0430\u0442": 4369,
  "\u2581travers": 4370,
  "\u2581\u043e\u0441\u043d\u043e\u0432\u0443": 4371,
  "\u2581\u0441\u043e\u043e\u0431\u0449\u0435\u043d\u0438\u0439": 4372,
  "\u2581\u0432\u0435\u0431": 4373,
  "\u2581\u041e\u0442\u0434\u0435\u043b": 4374,
  "ann\u00e9e": 4375,
  "\u2581\u043c\u043e\u0436\u0435\u0448\u044c": 4376,
  "\u0441\u0442\u043e": 4377,
  "\u2581\u0432\u0430\u0436\u043d\u044b\u0445": 4378,
  "\u2581scientifiques": 4379,
  "\u2581Br\u00e9sil": 4380,
  "\u2581\u0440\u0430\u043c\u043a\u0438": 4381,
  "\u0441\u0442\u0430": 4382,
  "\u2581scientifique": 4383,
  "it\u00e9": 4384,
  "\u2581Rwanda": 4385,
  "ach": 4386,
  "\u2581Lettre": 4387,
  "\u2581ind\u00e9pendant": 4388,
  "41": 4389,
  "\u2581directeur": 4390,
  "\u0432\u0448\u0438\u0445\u0441\u044f": 4391,
  "\u2581\u0443\u043c": 4392,
  "\u2581\u043f\u0440\u0435\u0434\u0441\u0442\u0430\u0432\u0438\u043b": 4393,
  "\u2581Vice": 4394,
  "\u2581\u0441\u0442\u0430\u0440": 4395,
  "\u2581\u043f\u0430": 4396,
  "84": 4397,
  "\u0419\u043e\u0440\u043a": 4398,
  "ma": 4399,
  "\u2581\u043e\u0441\u043e\u0431\u0435\u043d\u043d\u043e\u0441\u0442\u0438": 4400,
  "\u2581prison": 4401,
  "\u2581fils": 4402,
  "\u2581\u043d\u0430\u0440\u0443\u0448\u0435\u043d\u0438\u0435": 4403,
  "\u2581\u043f\u0435\u0440\u0435\u0447\u0435\u043d\u044c": 4404,
  "/63/": 4405,
  "\u2581\u043f\u0440\u0435\u0434\u0441\u0442\u0430\u0432\u0438\u0442\u0435\u043b\u044f\u043c\u0438": 4406,
  "\u2581Donc": 4407,
  "\u2581ind\u00e9pendance": 4408,
  "\u2581\u0422\u0435\u043f\u0435\u0440\u044c": 4409,
  "\u2581\u0413\u043e\u0441\u0443\u0434\u0430\u0440\u0441\u0442\u0432\u0430": 4410,
  "47": 4411,
  "Commissariat": 4412,
  "enseignement": 4413,
  "\u2581num\u00e9ro": 4414,
  "\u2581circulation": 4415,
  "ven": 4416,
  "\u2581Turquie": 4417,
  "\u2581pr\u00e9vue": 4418,
  "\u2581\u043f\u043e\u0441\u043b\u0435\u0434\u0443\u044e\u0449\u0438\u0445": 4419,
  "\u2581which": 4420,
  "\u043b\u0438\u0432": 4421,
  "\u2581concr\u00e8tes": 4422,
  "\u2581indispensable": 4423,
  "\u2581\u043f\u0440\u0438\u0432\u0435\u0440\u0436\u0435\u043d\u043d\u043e\u0441\u0442\u044c": 4424,
  "\u2581tendant": 4425,
  "89": 4426,
  "\u2581hors": 4427,
  "\u2581\u041b\u0430\u0442\u0438\u043d\u0441\u043a\u043e": 4428,
  "8.": 4429,
  "\u2581\u043f\u0440\u043e\u0438\u0441\u0445\u043e\u0434\u0438\u0442": 4430,
  "\u2581tes": 4431,
  "59": 4432,
  "\u2581infrastructures": 4433,
  "\u2581r\u00e9vision": 4434,
  "\u2581\u043f\u0440\u043e\u0441\u044c\u0431\u0435": 4435,
  "aider": 4436,
  "\u2581\u0444\u043e\u0440\u043c\u044b": 4437,
  "toi": 4438,
  "\u2581\u043f\u0440\u0438\u043d\u0446\u0438\u043f\u0430": 4439,
  "78": 4440,
  "\u0446\u0438": 4441,
  "\u2581r\u00e9formes": 4442,
  "\u2581Inde": 4443,
  "\u2581\u043f\u043e\u0441\u0442\u0430\u043d\u043e\u0432\u0438\u043b": 4444,
  "58": 4445,
  "\u2581\u043e\u0440\u0433\u0430\u043d\u0430\u043c": 4446,
  "\u2581compter": 4447,
  "\u2581\u041f\u0438\u0441\u044c\u043c\u043e": 4448,
  "\u0446\u044b": 4449,
  "\u2581X": 4450,
  "\u2581contingents": 4451,
  "\u2581rapportant": 4452,
  "\u2581\u041f\u0440\u043e\u0442\u043e\u043a\u043e\u043b\u0430": 4453,
  "\u2581demeure": 4454,
  "\u2581correspondant": 4455,
  "\u2581PNUE": 4456,
  "\u2581\u043d\u0430\u0448\u0438": 4457,
  "\u2581\u043a\u0440\u0430\u0439\u043d\u0435": 4458,
  "\u041b\u0435\u043e\u043d\u0435": 4459,
  "\u2581\u0441\u0432\u043e\u0431\u043e\u0434\u0443": 4460,
  "\u2581\u0443\u0433\u0440\u043e\u0437\u0443": 4461,
  "\u2581Law": 4462,
  "\u2581accorder": 4463,
  "ang": 4464,
  "57": 4465,
  "\u2581\u043f\u0430\u0440\u0442\u043d\u0435\u0440\u043e\u0432": 4466,
  "\u2581caract\u00e9ristique": 4467,
  "\u2581\u0441\u0432\u044f\u0437\u0435\u0439": 4468,
  "\u2581\u0432\u043d\u0435\u0441\u0442\u0438": 4469,
  "\u2581\u00e9tranger": 4470,
  "\u2581Plusieurs": 4471,
  "\u2581\u043f\u0440\u0438\u043d\u0446\u0438\u043f": 4472,
  "\u2581officieuses": 4473,
  "\u0446\u0438\u0438": 4474,
  "\u2581drogue": 4475,
  "\u2581contrats": 4476,
  "\u2581\u043e\u0442\u0441\u0443\u0442\u0441\u0442\u0432\u0438\u044f": 4477,
  "\u2581\u0421\u0443\u0434": 4478,
  "\u2581\u0441\u0435\u043a\u0440\u0435\u0442\u0430\u0440\u0435\u043c": 4479,
  "\u2581\u044d\u043a\u043e\u043d\u043e\u043c\u0438\u043a\u043e\u0439": 4480,
  "\u0438\u043d\u0430": 4481,
  "\u2581\u0446\u0435\u043d\u0442\u0440\u0430": 4482,
  "\u2581\u00e9nonc\u00e9s": 4483,
  "\u2581\u041a\u043e\u0440\u043e\u043b\u0435\u0432\u0441\u0442\u0432\u043e": 4484,
  "\u2581\u0441\u043e\u0442\u0440\u0443\u0434\u043d\u0438\u043a\u0430": 4485,
  "\u2581Ch": 4486,
  "\u2581combattre": 4487,
  "\u2581suffisamment": 4488,
  "\u2581\u0413\u0434\u0435": 4489,
  "\u044e\u0449\u0438\u0435": 4490,
  "ments": 4491,
  "\u2581\u0434\u043e\u0432\u0435\u0440\u0438\u044f": 4492,
  "\u2581Nouvelle": 4493,
  "\u2581\u043f\u0440\u0435\u0434\u0443\u0441\u043c\u043e\u0442\u0440\u0435\u043d\u043e": 4494,
  "vis": 4495,
  "6.": 4496,
  "77": 4497,
  "\u2581\u0441\u0435\u0440\u044c\u0435\u0437\u043d\u044b\u0435": 4498,
  "\u2581humaine": 4499,
  "\u0432\u043e\u0440": 4500,
  "\u2581\u043c\u0430\u0441\u0441\u043e\u0432": 4501,
  "\u0441\u0442\u0430\u043d\u043e\u0432": 4502,
  "\u2581\u0441\u0443\u043c\u043c\u0430": 4503,
  "\u2581\u0421\u0443\u0434\u0430": 4504,
  "\u2581\u0432\u044b\u0445\u043e\u0434\u0430": 4505,
  "\u2581\u0416": 4506,
  "\u2581communiquer": 4507,
  "do": 4508,
  "\u2581judiciaires": 4509,
  "\u25812,": 4510,
  "/2002/": 4511,
  "eurs": 4512,
  "\u2581\u0434\u0438\u0430\u043b\u043e\u0433": 4513,
  "\u2581\u043e\u043f\u044b\u0442\u043e\u043c": 4514,
  "\u043d\u0438\u0438": 4515,
  "\u0446\u0438\u043e\u043d": 4516,
  "com": 4517,
  "\u2581retard": 4518,
  "/10": 4519,
  "\u043f\u0440\u0435": 4520,
  "\u2581\u0432\u0441\u044e": 4521,
  "\u2581\u043f\u0440\u043e\u0432\u0435\u043b": 4522,
  "\u043d\u043e\u0441": 4523,
  "argent": 4524,
  "all": 4525,
  "\u2581\u0448\u0442\u0430\u0431": 4526,
  "\u2581page": 4527,
  "\u2581\u0441\u043e\u0433\u043b\u0430\u0448\u0435\u043d\u0438\u0435": 4528,
  "\u2581usage": 4529,
  "\u2581,\"": 4530,
  "\u2581\u043f\u043e\u043b\u043e\u0436\u0435\u043d\u0438\u044e": 4531,
  "we": 4532,
  "\u2581\u0422\u0435": 4533,
  "\u2581t\u00e2che": 4534,
  "\u25811998,": 4535,
  "\u2581investissement": 4536,
  "\u2581\u043c\u0435\u0442\u043e\u0434\u044b": 4537,
  "\u2581\u0437\u043d\u0430\u043b": 4538,
  "\u2581Procureur": 4539,
  "\u2581all": 4540,
  "\u2581saisi": 4541,
  "\u2581\u0421\u044c\u0435\u0440\u0440\u0430": 4542,
  "\u2581\u0411\u043e": 4543,
  "\u2581Liban": 4544,
  "\u2581has": 4545,
  "\u2581\u043f\u0440\u0430\u0432\u0435": 4546,
  ".15": 4547,
  "\u0430\u0441\u044c": 4548,
  "\u2581\u0441\u043e\u0445\u0440\u0430\u043d\u0435\u043d\u0438\u044f": 4549,
  "\u2581sept": 4550,
  "\u2581\u0443\u0442\u0432\u0435\u0440\u0436\u0434\u0435\u043d\u0438\u0435": 4551,
  "38": 4552,
  "\u043b\u0438\u043d": 4553,
  "ah": 4554,
  "\u0432\u0435\u043d\u043d\u044b\u043c\u0438": 4555,
  "\u2581Suisse": 4556,
  "44": 4557,
  "\u2581\u043f\u0440\u043e\u043c\u044b\u0448\u043b\u0435\u043d\u043d\u043e\u0441\u0442\u0438": 4558,
  "\u2581exprim\u00e9": 4559,
  "\u2581conforme": 4560,
  "\u2581\u043c\u0438\u0440\u043d\u044b\u0445": 4561,
  "\u2581\u041d\u0430\u043c": 4562,
  "\u2581\u043f\u0440\u043e\u0446\u0435\u0441\u0441\u0443": 4563,
  "\u2581Plus": 4564,
  "\u258172": 4565,
  "\u2581\u043b\u044e\u0434\u0441\u043a\u0438\u0445": 4566,
  "\u2581accent": 4567,
  "troisi\u00e8me": 4568,
  "\u2581petite": 4569,
  "\u2581\u0440\u0435\u0433\u0438\u043e\u043d\u0430\u043b\u044c\u043d\u044b\u043c\u0438": 4570,
  "\u0415\u041d": 4571,
  "\u2581\u00e2g\u00e9es": 4572,
  "\u2581nord": 4573,
  "\u2581\u043a\u043b\u0430\u0441\u0441\u0430": 4574,
  "7.": 4575,
  "\u2581mettant": 4576,
  "\u2581montre": 4577,
  "\u043e\u0447": 4578,
  "\u2581ateliers": 4579,
  "\u2581\u0433\u043e\u0440": 4580,
  "\u2581\u043f\u0440\u0430\u0432\u0438\u0442\u0435\u043b\u044c\u0441\u0442\u0432\u0430\u043c\u0438": 4581,
  "\u2581Ju": 4582,
  "\u2581exercer": 4583,
  "96": 4584,
  "\u2581\u043e\u0442\u043c\u0435\u0447\u0430\u044f": 4585,
  "avez": 4586,
  "\u2581d\u00e9sormais": 4587,
  "\u2581universelle": 4588,
  "\u2581arm\u00e9es": 4589,
  "\u2581\u0441\u0432\u0438\u0434\u0435\u0442\u0435\u043b\u044c\u0441\u0442\u0432\u0443\u0435\u0442": 4590,
  "\u0435\u0448\u044c\u0441\u044f": 4591,
  "\u0441\u0441": 4592,
  "\u2581structures": 4593,
  "\u2581\u0441\u0430\u043c": 4594,
  "\u2581\u044d\u0444\u0444\u0435\u043a\u0442\u0438\u0432\u043d\u043e": 4595,
  "\u2581soir": 4596,
  "\u258111.": 4597,
  "urgence": 4598,
  "\u2581\u0438\u0441\u043f\u043e\u043b\u044c\u0437\u043e\u0432\u0430\u043d\u0438\u0438": 4599,
  "\u2581\u0441\u043b\u0435\u0434\u0443\u044e\u0449\u0435\u0435": 4600,
  "\u0435\u0446": 4601,
  "48": 4602,
  "\u2581\u00e9": 4603,
  "\u043c\u0438\u043d": 4604,
  "\u2581\u043a\u0430\u043a\u043e\u0433\u043e": 4605,
  "\u2581loin": 4606,
  "po": 4607,
  "\u2581\u0438\u043d\u0444\u043e\u0440\u043c\u0430\u0446\u0438\u043e\u043d\u043d\u044b\u0445": 4608,
  "\u2581utilis\u00e9es": 4609,
  "\u2581\u043d\u0430\u0447\u0430\u043b\u0435": 4610,
  "\u2581Internet": 4611,
  "\u2581\u043d\u0430\u0441\u0442\u043e\u044f\u0449\u0435\u043c\u0443": 4612,
  "\u2581\u043f\u043e\u043b\u0443\u0447\u0438\u043b": 4613,
  "\u2581To": 4614,
  "\u2581conclusion": 4615,
  "\u2581\u041b\u0435": 4616,
  "\u2581emplois": 4617,
  "\u2581comit\u00e9": 4618,
  "\u2581\u0448\u0435\u0441\u0442\u043e\u0439": 4619,
  "3,": 4620,
  "\u2581invite": 4621,
  "\u2581r\u00e8gle": 4622,
  "\u2581\u043c\u0430\u0448\u0438\u043d": 4623,
  "\u2581b\u00e9n\u00e9ficier": 4624,
  "\u2581intervention": 4625,
  "\u2581\u0443\u0434\u0430\u043b\u043e\u0441\u044c": 4626,
  "\u2581\u0432\u043a\u043b\u044e\u0447\u0430\u044e\u0442": 4627,
  "\u043f\u0443": 4628,
  "PR": 4629,
  "\u2581\u043f\u0440\u0438\u0437\u044b\u0432": 4630,
  "49": 4631,
  "\u0419": 4632,
  "em": 4633,
  "\u2581Norv\u00e8ge": 4634,
  "\u2581\u043f\u043e\u0432\u0435\u0434\u0435\u043d\u0438\u044f": 4635,
  "\u2581\u00e9labor\u00e9": 4636,
  "\u2581pre": 4637,
  "\u2581\u043d\u0435\u043b\u044c\u0437\u044f": 4638,
  "\u2581Palestine": 4639,
  "\u2581destin\u00e9es": 4640,
  "\u2581\u041a\u043e\u0440\u043e\u043b\u0435\u0432\u0441\u0442\u0432\u0430": 4641,
  "\u0441\u0443": 4642,
  "\u2581\u0443\u0447\u0438\u0442\u044b\u0432\u0430\u044f": 4643,
  "\u2581sortir": 4644,
  "\u0435\u0442\u0435": 4645,
  "\u2581\u043f\u0440\u043e\u0432\u0435\u0434\u0435\u043d\u043d": 4646,
  "\u2581partage": 4647,
  "\u2581unit\u00e9s": 4648,
  "\u0442\u0440\u0430": 4649,
  "\u2581Certains": 4650,
  "\u2581\u0441\u043e\u0434\u0435\u0440\u0436\u0430\u0442\u0441\u044f": 4651,
  "\u2581\u043d\u0430\u0434\u0437\u043e\u0440\u0430": 4652,
  "\u2581\u043e\u0444\u0438\u0446\u0438\u0430\u043b\u044c\u043d\u044b\u0445": 4653,
  "\u0447\u0438\u0442": 4654,
  "\u2581\u043f\u0440\u0438\u0437\u043d\u0430\u0435\u0442": 4655,
  "\u25811,": 4656,
  "\u2581coup": 4657,
  "\u0432\u0435": 4658,
  "\u2581auquel": 4659,
  "\u0435\u043b": 4660,
  "ct": 4661,
  "\u043b\u044b": 4662,
  "\u2581strat\u00e9giques": 4663,
  "\u2581respectivement": 4664,
  "\u2581\u0441\u0442\u0440\u0443\u043a\u0442\u0443\u0440": 4665,
  "\u2581\u0441\u043e\u0434\u0435\u0439\u0441\u0442\u0432\u0438\u0438": 4666,
  "\u0440\u0430\u043d": 4667,
  "\u2581\u0441\u0432\u0435\u0442\u0435": 4668,
  "oc": 4669,
  "\u2581effectivement": 4670,
  "\u2581\u00e9valuations": 4671,
  "\u2581\u0443\u043a\u0430\u0437\u0430\u043d\u043e": 4672,
  "CO": 4673,
  "\u2581\u0438\u043c\u0435\u044e\u0442\u0441\u044f": 4674,
  "\u2581sign\u00e9": 4675,
  "\u2581\u0440\u0435\u0448\u0435\u043d\u0438\u0435\u043c": 4676,
  "\u2581\u044d\u0444\u0444\u0435\u043a\u0442\u0438\u0432\u043d\u043e\u0441\u0442\u044c": 4677,
  "ted": 4678,
  "\u2581\u0448\u0438\u0440\u043e\u043a\u043e\u0433\u043e": 4679,
  "\u2581\u00e9troite": 4680,
  "98": 4681,
  "\u2581d\u00e9ploiement": 4682,
  "\u0434\u0435\u0442": 4683,
  "\u2581\u0432\u043d\u0435": 4684,
  "\u2581pouvez": 4685,
  "\u0443\u043b": 4686,
  "\u2581r\u00e9pression": 4687,
  "\u043b\u0443": 4688,
  "\u2581\u0440\u0430\u0437\u043b\u0438\u0447\u043d\u044b\u043c\u0438": 4689,
  "\u2581\u0411\u0430": 4690,
  "\u2581associations": 4691,
  "act": 4692,
  "\u2581permettent": 4693,
  "\u2581\u0418\u0441\u043b\u0430\u043c\u0441\u043a": 4694,
  "\u2581observateurs": 4695,
  "\u2581\u0432\u044b\u043f\u043e\u043b\u043d\u0435\u043d\u0438\u0438": 4696,
  "ants": 4697,
  "\u2581uni\u00e8me": 4698,
  "\u0446\u0430": 4699,
  "\u2581\u043f\u0430\u0440\u0442\u043d\u0435\u0440\u0441\u0442\u0432\u0430": 4700,
  "\u043d\u0435\u0439": 4701,
  "\u2581comp\u00e9tents": 4702,
  "\u2581\u043f\u0440\u043e\u0448\u043b\u043e\u043c": 4703,
  "9.": 4704,
  "\u0430\u044e\u0442": 4705,
  "\u2581\u0448\u0430\u0433\u0438": 4706,
  "\u2581Parlement": 4707,
  "\u2581d\u00e9sol\u00e9": 4708,
  "\u042e": 4709,
  "\u2581\u0434\u0430\u043d\u043d\u044b\u043c": 4710,
  "ique": 4711,
  "\u2581\u0430\u0444\u0440\u0438\u043a\u0430\u043d\u0441\u043a\u0438\u0445": 4712,
  "\u2581\u044f\u0437\u044b\u043a\u0430\u0445": 4713,
  "\u2581\u00e9tablis": 4714,
  "\u2581\u0437\u043d\u0430\u0447\u0438\u0442\u0435\u043b\u044c\u043d\u043e": 4715,
  "\u2581Adoption": 4716,
  "\u2581\u0441\u0442\u043e\u0438\u0442": 4717,
  "con": 4718,
  "\u2581\u043e\u043a\u0430\u0437\u0430\u0442\u044c": 4719,
  "08": 4720,
  "\u2581were": 4721,
  "\u2581officiels": 4722,
  "\u2581pr\u00e9c\u00e9dent": 4723,
  "\u2581\u043d\u0430\u0446\u0438\u043e\u043d\u0430\u043b\u044c\u043d\u044b\u043c": 4724,
  "24": 4725,
  "\u2581He": 4726,
  "\u258171": 4727,
  "\u2581\u043f\u0430\u043b\u0435\u0441\u0442\u0438\u043d\u0441\u043a": 4728,
  "\u2581oui": 4729,
  "\u2581d\u00e9clare": 4730,
  "76": 4731,
  "\u2581\u0441\u043e\u0446\u0438\u0430\u043b\u044c\u043d\u044b\u043c": 4732,
  "\u2581\u044d\u0444\u0444\u0435\u043a\u0442\u0438\u0432\u043d\u044b\u0445": 4733,
  "\u2581\u041a\u0438\u0442\u0430\u044f": 4734,
  "\u2581\u0440\u0430\u0442\u0438\u0444\u0438\u043a\u0430\u0446\u0438\u0438": 4735,
  "04": 4736,
  "gu": 4737,
  "\u2581\u0437\u0430\u043d\u0438\u043c\u0430\u0442\u044c\u0441\u044f": 4738,
  "\u2581\u0434\u0430\u043d\u043d\u043e\u043c": 4739,
  "\u2581\u0415\u0432\u0440\u043e\u043f\u0435": 4740,
  "5.": 4741,
  "\u2581violences": 4742,
  "\u2581\u0441\u043e\u043e\u0431\u0449\u0435\u043d\u0438\u0435": 4743,
  "\u2581\u0418\u0440\u043b\u0430\u043d\u0434\u0438\u0438": 4744,
  "\u2581ratification": 4745,
  "56": 4746,
  "\u2581priv\u00e9e": 4747,
  "\u0441\u0441\u0438": 4748,
  "\u2581\u0421\u0430\u043d": 4749,
  "\u2581modification": 4750,
  "\u2581susceptibles": 4751,
  "\u2581\u043a\u043e\u043d\u0442\u0440\u043e\u043b\u044e": 4752,
  "\u2581\u043c\u0438\u0440\u0443": 4753,
  "\u258176": 4754,
  "\u2581\u042e\u041d\u0418\u0414\u041e": 4755,
  "31": 4756,
  "deuxi\u00e8me": 4757,
  "\u2581\u043d\u0430\u0440\u043a\u043e\u0442\u0438\u043a\u0430\u043c\u0438": 4758,
  "\u2581mineurs": 4759,
  "\u2581\u0443\u0432\u0435\u043b\u0438\u0447\u0435\u043d\u0438\u044f": 4760,
  "/58/": 4761,
  "\u2581\u0413\u043b\u043e\u0431\u0430\u043b\u044c\u043d": 4762,
  "\u2581contribu\u00e9": 4763,
  "\u2581r\u00e8glements": 4764,
  "ian": 4765,
  "\u2581\u0441\u0432\u044f\u0437\u044c": 4766,
  "\u0432\u0430\u0440": 4767,
  "\u044d\u0439": 4768,
  "\u2581\u0431\u0443\u0434\u0435\u043c": 4769,
  "\u043d\u0443\u0442\u044c": 4770,
  "\u2581\u043e\u0431\u0441\u0443\u0436\u0434\u0435\u043d\u0438\u0435": 4771,
  "\u2581\u041f\u0440\u0435": 4772,
  "\u0438\u0440\u043e\u0432\u0430\u043d\u0438\u0435": 4773,
  "\u2581\u0433\u043b\u043e\u0431\u0430\u043b\u044c\u043d\u043e\u0439": 4774,
  "\u2581devenir": 4775,
  "\u2581\u043e\u0442\u0445\u043e\u0434\u043e\u0432": 4776,
  "Europe": 4777,
  "\u2581\u041a\u043e\u043d\u0435\u0447\u043d\u043e": 4778,
  "\u2581\u043f\u0435\u0440\u0435\u043c\u0435\u0449\u0435\u043d\u043d\u044b\u0445": 4779,
  "\u2581parle": 4780,
  "\u2581\u0441\u0442\u0430\u043b": 4781,
  "\u2581\u044d\u043a\u043e\u043d\u043e\u043c\u0438\u0447\u0435\u0441\u043a\u0438\u043c": 4782,
  "\u2581candidats": 4783,
  "\u2581\u0440\u0430\u0437\u0432\u0438\u0432\u0430\u044e\u0449\u0438\u043c\u0441\u044f": 4784,
  "\u2581conception": 4785,
  "\u2581\u044d\u043a\u0441\u043f\u043e\u0440\u0442": 4786,
  "\u0435\u043b\u0438": 4787,
  "\u2581existants": 4788,
  "\u2581\u043e\u043f\u0430\u0441\u043d\u044b\u0445": 4789,
  "out": 4790,
  "\u2581\u043f\u043e\u0441\u043b\u0435\u0434\u043d\u0438\u0445": 4791,
  "\u2581op\u00e9ration": 4792,
  "\u0419\u043e\u0440\u043a\u0435": 4793,
  "\u2581\u043f\u0438\u0441\u044c\u043c\u043e": 4794,
  "\u2581\u0438\u043c\u0435\u0435\u0442\u0441\u044f": 4795,
  "05": 4796,
  "\u2581augment\u00e9": 4797,
  "\u0442\u0435\u043d": 4798,
  "\u2581Statut": 4799,
  "\u2581\u0433\u043b\u0430\u0432\u044b": 4800,
  "X": 4801,
  ".1.": 4802,
  "rig": 4803,
  "t\u00e9": 4804,
  "del\u00e0": 4805,
  "\u2581liaison": 4806,
  "amp": 4807,
  "\u2581para": 4808,
  "\u2581\u0412\u0441\u0435\u043c\u0438\u0440\u043d": 4809,
  "SI": 4810,
  "\u2581\u0432\u0430\u0448": 4811,
  "\u2581\u0440\u0430\u0437\u0440\u0430\u0431\u043e\u0442\u043a\u0430": 4812,
  "\u2581\u043f\u043e\u0442\u043e\u043c": 4813,
  "\u2581\u043e\u0431\u0449\u0438\u0435": 4814,
  "\u2581\u043f\u0440\u043e\u0446\u0435\u0441\u0441\u043e\u0432": 4815,
  "\u2581\u043f\u0430\u0440\u0442\u043d\u0435\u0440\u0430\u043c\u0438": 4816,
  "\u2581totale": 4817,
  "\u2581vont": 4818,
  "\u2581perte": 4819,
  "ru": 4820,
  "\u2581\u043d\u0430\u0440\u043a\u043e\u0442\u0438\u043a\u043e\u0432": 4821,
  "\u2581\u0434\u043e\u043d\u043e\u0440\u043e\u0432": 4822,
  "io": 4823,
  "\u2581appuie": 4824,
  "/7": 4825,
  "\u2581\u0438\u0441\u043f\u043e\u043b\u044c\u0437\u043e\u0432\u0430\u0442\u044c\u0441\u044f": 4826,
  "dire": 4827,
  "\u2581\u0440\u0430\u0441\u043f\u0440\u0435\u0434\u0435\u043b\u0435\u043d\u0438\u044f": 4828,
  "\u2581int\u00e9ress\u00e9s": 4829,
  "74": 4830,
  "\u2581r\u00e9soudre": 4831,
  "\u2581\u043a\u0440\u0438\u0437\u0438\u0441\u0430": 4832,
  "\u2581trente": 4833,
  "\u2581Grande": 4834,
  "\u2581\u043f\u043e\u043b\u0443\u0447\u0435\u043d\u043d\u044b": 4835,
  "\u2581\u043a\u043e\u043d\u0444\u0435\u0440\u0435\u043d\u0446\u0438\u0439": 4836,
  "\u2581\u0443\u0434\u0435\u043b\u044f\u0442\u044c": 4837,
  "\u2581limite": 4838,
  "\u2581\u043a\u043e\u043c\u0438\u0442\u0435\u0442\u043e\u043c": 4839,
  "\u2581int\u00e9gr\u00e9": 4840,
  "\u2581\u0445\u043e\u0447\u0435\u0442": 4841,
  "\u2581amendements": 4842,
  "\u2581\u043e\u0441\u043d\u043e\u0432\u043d\u044b\u043c": 4843,
  "\u2581\u0443\u0442\u0432\u0435\u0440\u0436\u0434\u0430\u0435\u0442": 4844,
  "\u2581agent": 4845,
  "entre": 4846,
  "\u2581\u0433\u043e\u0432\u043e\u0440\u0438\u0442\u044c": 4847,
  "\u2581(2": 4848,
  "\u2581causes": 4849,
  "\u2581\u043f\u0440\u0435\u0434\u043b\u043e\u0436\u0435\u043d\u043e": 4850,
  "\u2581\u0430\u043a\u0442\u044b": 4851,
  "\u2581Somalie": 4852,
  "\u2581\u043f\u043e\u0432\u044b\u0441\u0438\u0442\u044c": 4853,
  "\u258112.": 4854,
  "\u2581atteint": 4855,
  "\u2581\u0432\u044b\u0432\u043e\u0434\u044b": 4856,
  "\u2581\u0441\u043e\u0441\u0442\u0430\u0432\u043b\u044f\u044e\u0442": 4857,
  "\u2581dispositifs": 4858,
  "\u2581Syst\u00e8me": 4859,
  "\u043d\u0443\u043b": 4860,
  "\u2581\u043c\u043e\u0431\u0438\u043b\u0438\u0437\u0430\u0446\u0438\u0438": 4861,
  "\u2581Car": 4862,
  "86": 4863,
  "\u2581\u0441\u043e\u0441\u0442\u043e\u044f\u043d\u0438\u044f": 4864,
  "\u044d\u0442": 4865,
  "\u2581Aux": 4866,
  "\u2581\u00e9quipes": 4867,
  "\u2581organiser": 4868,
  "\u0438\u043b\u044c": 4869,
  "\u044f\u0441": 4870,
  "\u2581\u041a\u043e\u0442": 4871,
  "\u2581commercial": 4872,
  "\u2581concours": 4873,
  "\u2581\u043e\u0445\u0440\u0430\u043d\u0435": 4874,
  "\u25812010,": 4875,
  "212)": 4876,
  "\u2581\u0441\u043e\u0431\u0438\u0440\u0430": 4877,
  "\u2581occup\u00e9": 4878,
  "ical": 4879,
  "\u2581rel\u00e8ve": 4880,
  "\u0437\u043e\u0432": 4881,
  "\u2581relation": 4882,
  "\u2581transit": 4883,
  "\u043e\u0441\u0442": 4884,
  "\u2581atelier": 4885,
  "\u2581pression": 4886,
  "\u2581\u0440\u0430\u0441\u0448\u0438\u0440\u0435\u043d\u0438\u044e": 4887,
  "\u2581suppl\u00e9mentaire": 4888,
  "\u2581\u0422\u043e\u043b\u044c\u043a\u043e": 4889,
  "23": 4890,
  "port": 4891,
  "des": 4892,
  "\u2581\u043f\u0435\u0440\u0432\u0443\u044e": 4893,
  "\u2581\u0434\u0435\u043b\u0430\u0435\u0442": 4894,
  "\u2581\u0440\u0435\u0433\u0438\u043e\u043d\u0430\u043b\u044c\u043d\u043e\u0433\u043e": 4895,
  "\u0428": 4896,
  "\u2581\u041d\u0430\u0440\u043e\u0434\u043d\u043e": 4897,
  "\u0447\u0435\u043d": 4898,
  "\u2581\u043e\u0441\u0443\u0449\u0435\u0441\u0442\u0432\u043b\u044f\u0442\u044c\u0441\u044f": 4899,
  "\u2581\u0420\u0430\u0437": 4900,
  "\u2581forte": 4901,
  "\u2581victime": 4902,
  "\u2581prochain": 4903,
  "land": 4904,
  "\u2581campagne": 4905,
  "\u2581\u043c\u043e\u0435\u0433\u043e": 4906,
  "\u2581auxquelles": 4907,
  "\u2581arrangements": 4908,
  "\u2581\u043f\u043b\u0430\u043d\u044b": 4909,
  "\u2581\u0443\u0433\u0440\u043e\u0437\u044b": 4910,
  "\u2581plaintes": 4911,
  "\u043d\u043d\u044b\u0435": 4912,
  "\u2581insulaires": 4913,
  "\u2581\u041a\u043e\u0441\u043e\u0432\u043e": 4914,
  "\u0440\u044c": 4915,
  "\u2581\u043e\u0445\u0432\u0430\u0442\u0430": 4916,
  "\u2581\u043f\u043e\u0434\u0433\u043e\u0442\u043e\u0432\u0438\u0442\u044c": 4917,
  "\u2581\u0443\u0434\u043e\u0432\u043b\u0435\u0442\u0432\u043e\u0440\u0435\u043d\u0438\u044f": 4918,
  "\u2581acquitter": 4919,
  "\u2581\u0433\u043e\u0441\u0443\u0434\u0430\u0440\u0441\u0442\u0432\u0435\u043d\u043d\u044b\u043c": 4920,
  "8": 4921,
  "\u0442\u0438\u0432": 4922,
  "\u2581\u043c\u0430\u0442\u0435\u0440\u0438\u0430\u043b\u044c\u043d\u043e": 4923,
  "\u2581central": 4924,
  "\u2581Document": 4925,
  "\u2581\u041a\u043e\u043d\u0432\u0435\u043d\u0446\u0438\u044e": 4926,
  "\u2581\u0432\u0435\u0434\u044c": 4927,
  "\u2581\u0444\u0438\u043d\u0430\u043d\u0441\u043e\u0432\u043e\u0433\u043e": 4928,
  "\u2581pr\u00e9vus": 4929,
  "\u043c\u0435\u0442": 4930,
  "\u2581\u043e\u043f\u0440\u0435\u0434\u0435\u043b\u0435\u043d\u043d\u044b\u0445": 4931,
  "\u25811988": 4932,
  "\u2581stocks": 4933,
  "\u2581\u0421\u043e\u0433\u043b\u0430\u0448\u0435\u043d\u0438\u044f": 4934,
  "\u2581\u0448\u0435\u0441\u0442\u044c": 4935,
  "\u2581\u043f\u043e\u043b\u0443": 4936,
  "\u2581\u043f\u043e\u043b\u0438\u0442\u0438\u0447\u0435\u0441\u043a\u0438\u043c": 4937,
  "\u2581officielles": 4938,
  "\u2581joue": 4939,
  "\u0443\u0441": 4940,
  "\u0435\u0437": 4941,
  "\u2581prenant": 4942,
  "\u2581\u0443\u0447\u0430\u0441\u0442\u043d\u0438\u043a\u0438": 4943,
  "\u0442\u0443\u0440": 4944,
  "\u2581\u0433\u043b\u043e\u0431\u0430\u043b\u044c\u043d\u044b\u0445": 4945,
  "\u2581\u0411\u043e\u0441\u043d\u0438\u0438": 4946,
  "\u0449": 4947,
  "\u258174": 4948,
  "\u2581\u043a\u0440\u0443\u043f\u043d\u044b\u0445": 4949,
  "79": 4950,
  "\u2581r\u00e9vis\u00e9": 4951,
  "\u2581\u0430\u0434\u0440\u0435\u0441": 4952,
  ".3/": 4953,
  "\u2581\u0441\u043e\u0434\u0435\u0440\u0436\u0430\u043d\u0438\u0435": 4954,
  "\u2581\u041a\u0421": 4955,
  "\u2581\u0430\u043a\u0442\u0438\u0432\u043e\u0432": 4956,
  "avait": 4957,
  "\u0432\u0430\u0442\u044c": 4958,
  "\u2581\u043d\u0430\u0431\u043b\u044e\u0434\u0435\u043d\u0438\u044f": 4959,
  "\u2581semaines": 4960,
  "\u2581\u041d\u0430\u0446\u0438\u043e\u043d\u0430\u043b\u044c\u043d\u043e": 4961,
  "\u2581entier": 4962,
  "\u2581\u0426\u0435\u043b\u044c": 4963,
  "\u2581distribution": 4964,
  "\u2581\u041a\u0430": 4965,
  "\u2581Quel": 4966,
  "\u2581calendrier": 4967,
  "\u2581agricoles": 4968,
  "\u2581law": 4969,
  "\u2581\u0417\u0430\u043f\u0430\u0434\u043d\u043e\u0439": 4970,
  "\u2581Special": 4971,
  "\u2581chercher": 4972,
  "\u2581\u0443\u0441\u0438\u043b\u0438\u044f\u0445": 4973,
  "\u2581\u041b\u043e": 4974,
  "agit": 4975,
  "\u2581\u043e\u043a\u0430\u0437\u044b\u0432\u0430\u0435\u0442": 4976,
  "\u2581\u043f\u0435\u0440\u0435\u0432\u043e\u0437\u043a\u0438": 4977,
  "\u2581consacr\u00e9": 4978,
  "tandis": 4979,
  "\u2581revenus": 4980,
  "\u2581\u043f\u0435\u0440\u0435\u0433\u043e\u0432\u043e\u0440\u044b": 4981,
  "\u2581\u0434\u043e\u043a\u0443\u043c\u0435\u043d\u0442\u0430\u0446\u0438\u0438": 4982,
  "\u2581peur": 4983,
  "\u2581familiale": 4984,
  "\u2581\u043d\u0430\u0446\u0438\u043e\u043d\u0430\u043b\u044c\u043d\u044b\u043c\u0438": 4985,
  "\u2581\u043f\u043e\u0434\u0433\u043e\u0442\u043e\u0432\u043b\u0435\u043d": 4986,
  "\u2581\u0431\u0443\u0434\u0443\u0449\u0438\u0445": 4987,
  "d\u00e9": 4988,
  "\u2581\u0440\u0430\u0431\u043e\u0442": 4989,
  "iez": 4990,
  "\u2581Government": 4991,
  "\u2581\u0440\u0443\u043a\u043e\u0432\u043e\u0434\u0441\u0442\u0432\u043e\u043c": 4992,
  "\u2581vivant": 4993,
  "\u2581pouvant": 4994,
  "\u2581\u0441\u0442\u0430\u0442\u044c\u044f": 4995,
  "ho": 4996,
  "\u043b\u043e\u0432": 4997,
  "\u2581Nombre": 4998,
  "\u0440\u0435\u0431": 4999,
  "/12": 5000,
  "\u2581\u0441\u0435\u0434\u044c\u043c\u043e\u0439": 5001,
  "\u2581milliards": 5002,
  "\u2581Iran": 5003,
  "\u044a": 5004,
  "\u2581\u043f\u0438\u0441\u044c\u043c\u0430": 5005,
  "\u2581\u043c\u0438\u0433\u0440\u0430\u0446\u0438\u0438": 5006,
  "\u2581mondialisation": 5007,
  "\u2581\u0437\u043d\u0430\u0447\u0438\u0442": 5008,
  "87": 5009,
  "\u2581\u0431\u0435\u0441": 5010,
  "\u2581Cinqui\u00e8me": 5011,
  "\u2581re\u00e7ues": 5012,
  "\u2581ethniques": 5013,
  "\u2581Bo": 5014,
  "attention": 5015,
  "\u2581logistique": 5016,
  "\u2581\u0443\u0432\u0435\u0440\u0435\u043d": 5017,
  "\u2581report": 5018,
  "\u2581documentation": 5019,
  "\u2581\u0442\u0430\u0431\u043b\u0438\u0446\u0435": 5020,
  "ONUDI": 5021,
  "\u2581cadres": 5022,
  "\u2581\u043f\u0440\u043e\u0441\u0438\u043b": 5023,
  "\u2581\u043f\u043e\u043b\u0443\u0447\u0435\u043d\u0438\u0435": 5024,
  "\u2581\u043f\u0440\u0430\u043a\u0442\u0438\u0447\u0435\u0441\u043a\u0438": 5025,
  "\u2581\u043f\u0440\u043e\u0434\u043e\u043b\u0436\u0438\u0442\u044c": 5026,
  "\u00c9tats": 5027,
  "\u2581\u043e\u0441\u043d\u043e\u0432\u044b": 5028,
  "\u2581chances": 5029,
  "ale": 5030,
  "\u2581parfois": 5031,
  "\u0435\u043d\u0438\u044e": 5032,
  "\u2581com": 5033,
  "\u2581\u0440\u0438\u0441\u043a\u0430": 5034,
  "examiner": 5035,
  "\u2581\u0441\u043b\u0435\u0434\u0443\u044e\u0449\u0438\u0439": 5036,
  "\u0438\u0447\u0435\u0441\u043a\u043e\u0439": 5037,
  "\u0442\u0430\u043d": 5038,
  "\u2581vi": 5039,
  "\u2581\u00e9tablie": 5040,
  "\u2581\u0437\u0430\u0440\u0435\u0433\u0438\u0441\u0442\u0440\u0438\u0440\u043e\u0432\u0430\u043d": 5041,
  "\u2581Prend": 5042,
  "\u2581\u0413\u043e\u0441\u0443\u0434\u0430\u0440\u0441\u0442\u0432\u043e": 5043,
  "\u2581expos\u00e9": 5044,
  "\u2581Irlande": 5045,
  "\u2581\u0433\u0440\u0443\u043f\u043f\u0430\u043c\u0438": 5046,
  "\u2581Su\u00e8de": 5047,
  "\u0442\u043e\u043d": 5048,
  "hi": 5049,
  "\u2581\u0448\u043a\u043e\u043b\u044b": 5050,
  "\u2581maladie": 5051,
  "\u2581\u043f\u0435\u0440\u0435\u0432\u043e\u0437\u043e\u043a": 5052,
  "GE": 5053,
  "\u2581\u0442\u0435\u0440\u0440\u0438\u0442\u043e\u0440\u0438\u0439": 5054,
  "/13": 5055,
  "\u2581poursuites": 5056,
  "\u2581\u0432\u0441\u043f\u043e\u043c\u043e\u0433\u0430\u0442\u0435\u043b\u044c\u043d\u044b\u0445": 5057,
  "73": 5058,
  "46": 5059,
  "\u2581\u041a\u043e\u0440": 5060,
  "\u2581\u0443\u043a\u0430\u0437\u0430\u043d\u043d\u044b\u0445": 5061,
  "\u2581\u043d\u0435\u043c\u043d\u043e\u0433\u043e": 5062,
  "ob": 5063,
  "\u2581800": 5064,
  "\u2581tch\u00e8que": 5065,
  "\u2581\u043f\u043e\u0441\u0442\u0430\u043d\u043e\u0432\u0438\u043b\u0430": 5066,
  "\u2581\u043f\u0440\u0435\u0437\u0438\u0434\u0435\u043d\u0442\u0430": 5067,
  "\u2581\u0434\u0435\u043d\u0435\u0433": 5068,
  "\u2581\u043f\u0440\u0438\u0447\u0438\u043d\u0435": 5069,
  "\u2581\u0430\u043a\u0442\u0438\u0432\u0438\u0437\u0438\u0440\u043e\u0432\u0430\u0442\u044c": 5070,
  "\u0431\u043e\u0440": 5071,
  "\u2581africains": 5072,
  "\u2581repr\u00e9sentation": 5073,
  "\u043d\u0435\u0441": 5074,
  "\u2581menaces": 5075,
  "\u0444\u043e\u0440\u043c\u0443\u043b\u0438\u0440\u043e\u0432\u0430\u043d\u043d\u044b\u0445": 5076,
  "\u2581mandats": 5077,
  "\u2581Or": 5078,
  "CRP": 5079,
  "\u043e\u043d\u0430": 5080,
  "\u2581bonnes": 5081,
  "\u25811997,": 5082,
  "\u2581manifestations": 5083,
  "\u0418\u0421": 5084,
  "\u0431\u0438\u043b": 5085,
  "\u2581\u043f\u0440\u0435\u0434\u0435\u043b\u0430\u0445": 5086,
  "lu": 5087,
  "\u2581\u043f\u0440\u043e\u0441\u044c\u0431\u0430": 5088,
  "DP": 5089,
  "\u2581Strat\u00e9gie": 5090,
  "\u2581\u043f\u044f\u0442\u043e\u0439": 5091,
  "\u2581\u00e9conomies": 5092,
  "\u2581villes": 5093,
  "43": 5094,
  "\u2581appelle": 5095,
  "\u2581\u043d\u0430\u043c\u0438": 5096,
  "\u2581\u041f\u0440\u043e\u0441\u044c\u0431\u0430": 5097,
  "\u2581\u0438\u0437\u0432\u0435\u0441\u0442\u043d\u043e": 5098,
  "\u2581\u0441\u043e\u0434\u0435\u0440\u0436\u0430\u0449\u0438\u0445\u0441\u044f": 5099,
  "\u2581rappel\u00e9": 5100,
  "\u0430\u0431": 5101,
  "\u043a\u043e\u0440": 5102,
  "\u2581Cet": 5103,
  "\u2581\u0441\u0435\u043a\u0442\u043e\u0440": 5104,
  "\u2581\u043c\u0430\u043b\u044b\u0445": 5105,
  "\u2581\u0432\u043e\u0441\u044c\u043c\u043e\u0439": 5106,
  "\u2581meilleures": 5107,
  "\u2581interventions": 5108,
  "\u2581\u0438\u0441\u043f\u044b\u0442\u0430\u043d\u0438\u0439": 5109,
  "\u2581\u0441\u043c\u0435\u0440\u0442\u0438": 5110,
  "\u2581\u043f\u043e\u043b\u0438\u0442\u0438\u0447\u0435\u0441\u043a\u0438\u0435": 5111,
  "\u2581fronti\u00e8re": 5112,
  "\u2581coordonner": 5113,
  "\u2581\u0433\u043b\u043e\u0431\u0430\u043b\u044c\u043d\u043e\u0433\u043e": 5114,
  "ton": 5115,
  "\u2581active": 5116,
  "\u2581propose": 5117,
  "\u2581expression": 5118,
  "\u2581voulez": 5119,
  "\u2581\u0441\u0438\u0441\u0442\u0435\u043c\u043e\u0439": 5120,
  "\u2581\u0433\u0435\u043d\u0434\u0435\u0440\u043d\u043e\u0439": 5121,
  "\u2581dehors": 5122,
  "42": 5123,
  "21": 5124,
  "\u2581its": 5125,
  "\u2581longue": 5126,
  "\u0436\u0434\u0430": 5127,
  "\u2581\u0440\u0435\u0430\u0433\u0438\u0440\u043e\u0432\u0430\u043d\u0438\u044f": 5128,
  "\u2581pr\u00eat": 5129,
  "\u2581\u043e\u0440\u0433\u0430\u043d\u0438\u0437\u043e\u0432\u0430\u043d\u043d\u043e\u0439": 5130,
  "\u2581l\u00e9g\u00e8res": 5131,
  "\u2581pollution": 5132,
  "\u2581\u043a\u0440\u043e\u043c\u0435": 5133,
  "\u2581\u0441\u043e\u0431\u043b\u044e\u0434\u0435\u043d\u0438\u0435": 5134,
  "\u2581engag\u00e9": 5135,
  "\u2581\u0440\u0430\u0437\u0431\u0438\u0440\u0430\u0442\u0435\u043b\u044c\u0441\u0442\u0432\u0430": 5136,
  "\u2581\u0430\u0432\u0442\u043e\u0440\u0430": 5137,
  "\u2581consacr\u00e9e": 5138,
  "\u2581uniquement": 5139,
  "\u2581\u043f\u043e\u043f\u0440\u0430\u0432\u043e\u043a": 5140,
  "objectif": 5141,
  "\u2581\u0422\u0430\u043c": 5142,
  "\u2581\u0444\u043e\u0440\u0443\u043c\u0430": 5143,
  "\u2581\u0437\u0435\u043c\u0435\u043b\u044c": 5144,
  ".4/": 5145,
  "origine": 5146,
  "\u2581\u0415\u0432\u0440\u043e\u043f\u0435\u0439\u0441\u043a\u0438\u0439": 5147,
  "\u2581\u0431\u0430\u0441\u0441\u0435\u0439\u043d\u0430": 5148,
  "\u043d\u0435\u0435": 5149,
  "\u2581cinqui\u00e8me": 5150,
  "\u2581\u0447\u0430\u0441\u043e\u0432": 5151,
  "\u2581\u0411\u0443\u0440\u0443\u043d\u0434\u0438": 5152,
  "\u2581\u0442\u0435\u0440\u0440\u043e\u0440\u0438\u0441\u0442\u0438\u0447\u0435\u0441\u043a\u0438": 5153,
  "01": 5154,
  "\u2581Afin": 5155,
  "\u0426": 5156,
  "\u2581\u041f\u043e\u0442\u043e\u043c\u0443": 5157,
  "\u2581\u043d\u0430\u0443\u043a\u0438": 5158,
  "\u2581\u0441\u043b\u043e\u0436\u043d\u043e\u0441\u0442\u0438": 5159,
  "\u2581\u0442\u0435\u043a\u0441\u0442\u0430": 5160,
  "\u2581\u041f\u0440\u0435\u0434": 5161,
  "\u2581\u0441\u043e\u0433\u043b\u0430\u0441\u043e\u0432\u0430\u043d\u043d\u044b\u0445": 5162,
  "point": 5163,
  "\u2581\u0440\u0443\u043a\u043e\u0432\u043e\u0434\u0438\u0442\u0435\u043b\u0435\u0439": 5164,
  "\u2581rend": 5165,
  "\u2581prestations": 5166,
  "\u2581restrictions": 5167,
  "\u2581\u0443\u043d\u0438\u0447\u0442\u043e\u0436\u0435\u043d\u0438\u044f": 5168,
  "\u2581\u043e\u0440\u0443\u0436\u0438\u0435": 5169,
  "\u00e2": 5170,
  "\u2581\u041f\u0440\u0430\u0432\u043e": 5171,
  "\u2581Sierra": 5172,
  "\u2581\u043f\u043e\u043e\u0449\u0440\u044f\u0442\u044c": 5173,
  "\u2581mot": 5174,
  "\u2581sites": 5175,
  "\u2581\u0434\u043e\u0441\u0442\u043e\u0438\u043d\u0441\u0442\u0432\u043e": 5176,
  "\u2581\u0434\u0435\u043c\u043e\u043a\u0440\u0430\u0442\u0438\u0438": 5177,
  "\u2581\u0441\u043e\u0434\u0435\u0440\u0436\u0430\u0449\u0438\u0435\u0441\u044f": 5178,
  "\u0438\u0446": 5179,
  "\u2581voulais": 5180,
  "ny": 5181,
  "\u2581maximum": 5182,
  "\u2581\u0437\u0430\u043f\u0440\u0435\u0449\u0435\u043d\u0438\u0438": 5183,
  "\u2581tuer": 5184,
  "\u2581Leone": 5185,
[...]
